{
  "version": "1.0",
  "truncation": null,
  "padding": null,
  "added_tokens": [
    {
      "id": 0,
      "content": "<pad>",
      "single_word": false,
      "lstrip": false,
      "rstrip": false,
      "normalized": false,
      "special": true
    },
    {
      "id": 1,
      "content": "<s>",
      "single_word": false,
      "lstrip": false,
      "rstrip": false,
      "normalized": false,
      "special": true
    },
    {
      "id": 2,
      "content": "</s>",
      "single_word": false,
      "lstrip": false,
      "rstrip": false,
      "normalized": false,
      "special": true
    },
    {
      "id": 3,
      "content": "<unk>",
      "single_word": false,
      "lstrip": false,
      "rstrip": false,
      "normalized": false,
      "special": true
    },
    {
      "id": 4,
      "content": "<user>",
      "single_word": false,
      "lstrip": false,
      "rstrip": false,
      "normalized": false,
      "special": true
    },
    {
      "id": 5,
      "content": "<assistant>",
      "single_word": false,
      "lstrip": false,
      "rstrip": false,
      "normalized": false,
      "special": true
    }
  ],
  "normalizer": null,
  "pre_tokenizer": {
    "type": "ByteLevel",
    "add_prefix_space": false,
    "trim_offsets": true,
    "use_regex": true
  },
  "post_processor": {
    "type": "TemplateProcessing",
    "single": [
      {
        "Sequence": {
          "id": "A",
          "type_id": 0
        }
      },
      {
        "SpecialToken": {
          "id": "</s>",
          "type_id": 0
        }
      }
    ],
    "pair": [
      {
        "Sequence": {
          "id": "A",
          "type_id": 0
        }
      },
      {
        "SpecialToken": {
          "id": "</s>",
          "type_id": 0
        }
      },
      {
        "Sequence": {
          "id": "B",
          "type_id": 0
        }
      },
      {
        "SpecialToken": {
          "id": "</s>",
          "type_id": 0
        }
      }
    ],
    "special_tokens": {
      "</s>": {
        "id": "</s>",
        "ids": [
          2
        ],
        "tokens": [
          "</s>"
        ]
      }
    }
  },
  "decoder": {
    "type": "ByteLevel",
    "add_prefix_space": true,
    "trim_offsets": true,
    "use_regex": true
  },
  "model": {
    "type": "BPE",
    "dropout": null,
    "unk_token": null,
    "continuing_subword_prefix": null,
    "end_of_word_suffix": null,
    "fuse_unk": false,
    "byte_fallback": false,
    "ignore_merges": false,
    "vocab": {
      "<pad>": 0,
      "<s>": 1,
      "</s>": 2,
      "<unk>": 3,
      "<user>": 4,
      "<assistant>": 5,
      "!": 6,
      "\"": 7,
      "'": 8,
      ",": 9,
      "-": 10,
      ".": 11,
      "/": 12,
      "0": 13,
      "1": 14,
      "2": 15,
      "3": 16,
      "4": 17,
      "5": 18,
      "6": 19,
      "7": 20,
      "8": 21,
      "9": 22,
      ":": 23,
      ";": 24,
      "<": 25,
      ">": 26,
      "?": 27,
      "A": 28,
      "B": 29,
      "C": 30,
      "D": 31,
      "E": 32,
      "F": 33,
      "G": 34,
      "H": 35,
      "I": 36,
      "J": 37,
      "K": 38,
      "L": 39,
      "M": 40,
      "N": 41,
      "O": 42,
      "P": 43,
      "Q": 44,
      "R": 45,
      "S": 46,
      "T": 47,
      "U": 48,
      "V": 49,
      "W": 50,
      "X": 51,
      "Y": 52,
      "Z": 53,
      "_": 54,
      "a": 55,
      "b": 56,
      "c": 57,
      "d": 58,
      "e": 59,
      "f": 60,
      "g": 61,
      "h": 62,
      "i": 63,
      "j": 64,
      "k": 65,
      "l": 66,
      "m": 67,
      "n": 68,
      "o": 69,
      "p": 70,
      "q": 71,
      "r": 72,
      "s": 73,
      "t": 74,
      "u": 75,
      "v": 76,
      "w": 77,
      "x": 78,
      "y": 79,
      "z": 80,
      "§": 81,
      "©": 82,
      "¬": 83,
      "±": 84,
      "Ã": 85,
      "Ġ": 86,
      "Ġ<": 87,
      "Ġt": 88,
      "Ġa": 89,
      "er": 90,
      "Ġi": 91,
      "Ġ</": 92,
      "st": 93,
      "an": 94,
      "ou": 95,
      "Ġw": 96,
      "as": 97,
      "Ġth": 98,
      "us": 99,
      "Ġh": 100,
      "in": 101,
      "Ġ.": 102,
      "Ġs": 103,
      "Ġm": 104,
      "user": 105,
      "ant": 106,
      "si": 107,
      "re": 108,
      "at": 109,
      "assi": 110,
      "stant": 111,
      "assistant": 112,
      "Ġy": 113,
      "Ġd": 114,
      "Ġb": 115,
      "ing": 116,
      "ĠI": 117,
      "Ġyou": 118,
      "Ġf": 119,
      "Ġto": 120,
      "on": 121,
      "Ġc": 122,
      "Ġl": 123,
      "or": 124,
      "Ġg": 125,
      "en": 126,
      "ll": 127,
      "Ġthe": 128,
      "ve": 129,
      "Ġ,": 130,
      "Ġ?": 131,
      "Ġp": 132,
      "Ġn": 133,
      "Ġan": 134,
      "Ġo": 135,
      "ed": 136,
      "it": 137,
      "es": 138,
      "Ġdo": 139,
      "ar": 140,
      "ow": 141,
      "Ġmy": 142,
      "om": 143,
      "Ġha": 144,
      "ay": 145,
      "ot": 146,
      "Ġit": 147,
      "et": 148,
      "Ġand": 149,
      "oo": 150,
      "Ġin": 151,
      "Ġis": 152,
      "ke": 153,
      "Ġbe": 154,
      "Ġwh": 155,
      "Ġthat": 156,
      "Ġof": 157,
      "Ġli": 158,
      "ic": 159,
      "Ġre": 160,
      "Ġe": 161,
      "Ġfor": 162,
      "Ġare": 163,
      "is": 164,
      "le": 165,
      "Ġhave": 166,
      "id": 167,
      "ld": 168,
      "Ġon": 169,
      "gh": 170,
      "ch": 171,
      "Ġ!": 172,
      "Ġhe": 173,
      "ut": 174,
      "ri": 175,
      "ere": 176,
      "Ġj": 177,
      "ver": 178,
      "Ġme": 179,
      "out": 180,
      "al": 181,
      "all": 182,
      "ad": 183,
      "Ġam": 184,
      "Ġwas": 185,
      "Ġwe": 186,
      "ĠT": 187,
      "ĠW": 188,
      "Ġso": 189,
      "Ġlike": 190,
      "ust": 191,
      "im": 192,
      "'s": 193,
      "'m": 194,
      "Ġst": 195,
      "ood": 196,
      "ly": 197,
      "ĠTh": 198,
      "55": 199,
      "ent": 200,
      "ome": 201,
      "Ġk": 202,
      "am": 203,
      "Ġlo": 204,
      "ith": 205,
      "Ġhow": 206,
      "Ġwhat": 207,
      "ght": 208,
      "un": 209,
      "Ġwor": 210,
      "Ġne": 211,
      "ĠS": 212,
      "Ġsh": 213,
      "Ġgo": 214,
      "'t": 215,
      "ould": 216,
      "Ġwith": 217,
      "ally": 218,
      "Ġnot": 219,
      "se": 220,
      "op": 221,
      "Ġjust": 222,
      "Ġgood": 223,
      "Ġbut": 224,
      "Ġat": 225,
      "ac": 226,
      "Ġyour": 227,
      "Ġ_": 228,
      "Ġ__": 229,
      "Ġab": 230,
      "ee": 231,
      "ĠY": 232,
      "Ġcan": 233,
      "ir": 234,
      "Ġwork": 235,
      "end": 236,
      "Ġr": 237,
      "ea": 238,
      "ill": 239,
      "th": 240,
      "Ġsu": 241,
      "ĠH": 242,
      "Ġlove": 243,
      "Ġget": 244,
      "Ġabout": 245,
      "oun": 246,
      "ry": 247,
      "very": 248,
      "ĠWh": 249,
      "pp": 250,
      "Ġch": 251,
      "one": 252,
      "ion": 253,
      "Ġal": 254,
      "ĠIt": 255,
      "day": 256,
      "Ġmo": 257,
      "ter": 258,
      "Ġhi": 259,
      "ĠM": 260,
      "Ġtoo": 261,
      "ce": 262,
      "Ġout": 263,
      "up": 264,
      "ur": 265,
      "ake": 266,
      "king": 267,
      "Ġtim": 268,
      "ice": 269,
      "Ġas": 270,
      "Ġpl": 271,
      "ul": 272,
      "ob": 273,
      "ĠA": 274,
      "Ġfr": 275,
      "ool": 276,
      "Ġreally": 277,
      "555": 278,
      "ec": 279,
      "Ġall": 280,
      "Ġdid": 281,
      "reat": 282,
      "ound": 283,
      "Ġkn": 284,
      "Ġtime": 285,
      "Ġsome": 286,
      "ĠO": 287,
      "ate": 288,
      "ĠThat": 289,
      "Ġup": 290,
      "ra": 291,
      "ell": 292,
      "Ġthere": 293,
      "Ġany": 294,
      "Ġthis": 295,
      "Ġthey": 296,
      "ard": 297,
      "Ġpr": 298,
      "and": 299,
      "ind": 300,
      "Ġno": 301,
      "ge": 302,
      "ink": 303,
      "ast": 304,
      "Ġex": 305,
      "Ġknow": 306,
      "Ġgreat": 307,
      "art": 308,
      "are": 309,
      "Ġfrom": 310,
      "ight": 311,
      "Ġdoing": 312,
      "ĠD": 313,
      "Ġwhen": 314,
      "Ġday": 315,
      "ite": 316,
      "Ġgot": 317,
      "her": 318,
      "Ġdon": 319,
      "ear": 320,
      "Ġgoing": 321,
      "CE": 322,
      "Ġwill": 323,
      "LE": 324,
      "ĠSI": 325,
      "NCE": 326,
      "LENCE": 327,
      "ĠSILENCE": 328,
      "ĠWhat": 329,
      "oy": 330,
      "our": 331,
      "Ġtoday": 332,
      "Ġwell": 333,
      "Ġwould": 334,
      "Ġsp": 335,
      "Ġco": 336,
      "riend": 337,
      "con": 338,
      "Ġone": 339,
      "Ġvery": 340,
      "Ġhit": 341,
      "il": 342,
      "ks": 343,
      "Ġbeen": 344,
      "Ġhad": 345,
      "Ġcom": 346,
      "Ġwant": 347,
      "'ve": 348,
      "ame": 349,
      "Ġpre": 350,
      "ers": 351,
      "Ġthink": 352,
      "ine": 353,
      "ish": 354,
      "Ġor": 355,
      "Ġsee": 356,
      "ong": 357,
      "Ġthem": 358,
      "Ġfa": 359,
      "ful": 360,
      "ough": 361,
      "ack": 362,
      "conv": 363,
      "ies": 364,
      "ess": 365,
      "ous": 366,
      "Ġus": 367,
      "Ġde": 368,
      "way": 369,
      "ĠC": 370,
      "Ġnow": 371,
      "ĠN": 372,
      "ope": 373,
      ".,": 374,
      "Ġshe": 375,
      "Ġnice": 376,
      "eel": 377,
      "ation": 378,
      "ie": 379,
      "Ġfriend": 380,
      "Ġmu": 381,
      "ain": 382,
      "ving": 383,
      "Ġv": 384,
      "Ġen": 385,
      "Ġlot": 386,
      "ĠYou": 387,
      "Ġmuch": 388,
      "lf": 389,
      "Ġfeel": 390,
      "Ġgr": 391,
      "ting": 392,
      "ĠB": 393,
      "Ġnew": 394,
      "Ġhell": 395,
      "ty": 396,
      "Ġhello": 397,
      "ĠThe": 398,
      "ort": 399,
      "Ġplay": 400,
      "ore": 401,
      "ab": 402,
      "right": 403,
      "ff": 404,
      "Ġyear": 405,
      "ct": 406,
      "Ġher": 407,
      "ook": 408,
      "Ġcon": 409,
      "Ġun": 410,
      "Ġwee": 411,
      "ven": 412,
      "Ġoh": 413,
      "Ġhapp": 414,
      "ĠOh": 415,
      "ĠYes": 416,
      "..": 417,
      "Ġfun": 418,
      "Ġcl": 419,
      "Ġint": 420,
      "omet": 421,
      "ck": 422,
      "Ġsound": 423,
      "um": 424,
      "ol": 425,
      "der": 426,
      "vor": 427,
      "Ġthan": 428,
      "atch": 429,
      "Ġdog": 430,
      "os": 431,
      "Ġjob": 432,
      "ig": 433,
      "Ġhope": 434,
      "eah": 435,
      "Ġbr": 436,
      "Ġcool": 437,
      "fe": 438,
      "Ġright": 439,
      "ive": 440,
      "Ġman": 441,
      "Ġsch": 442,
      "Ġbet": 443,
      "Ġthing": 444,
      "Ġkid": 445,
      "wn": 446,
      "Ġpe": 447,
      "Ġweek": 448,
      "Ġread": 449,
      "Ġfavor": 450,
      "Ġtr": 451,
      "Ġneed": 452,
      "Ġevery": 453,
      "res": 454,
      "Ġcould": 455,
      "Ġsomet": 456,
      "Ġaf": 457,
      "Ġcar": 458,
      "hing": 459,
      "ass": 460,
      "use": 461,
      "qu": 462,
      "ak": 463,
      "Ġif": 464,
      "ep": 465,
      "Ġgu": 466,
      "ĠMy": 467,
      "Ġoff": 468,
      "Ġfavorite": 469,
      "Ġsure": 470,
      "Ġmake": 471,
      "Ġschool": 472,
      "Ġar": 473,
      "Ġsounds": 474,
      "Ġback": 475,
      "Ġhim": 476,
      "Ġhere": 477,
      "Ġmore": 478,
      "ople": 479,
      "lp": 480,
      "Ġag": 481,
      "ud": 482,
      "Ġhelp": 483,
      "other": 484,
      "Ġshould": 485,
      "ning": 486,
      "ĠHow": 487,
      "Ġdi": 488,
      "Ġkind": 489,
      "Ġpeople": 490,
      "thing": 491,
      "Ġhome": 492,
      "orry": 493,
      "nt": 494,
      "Ġfe": 495,
      "Ġaw": 496,
      "Ġwatch": 497,
      "Ġtake": 498,
      "Ġlive": 499,
      "Ġcomp": 500,
      "Ġsa": 501,
      "self": 502,
      "ways": 503,
      "est": 504,
      "ick": 505,
      "ree": 506,
      "Ġbec": 507,
      "Ġyes": 508,
      "mp": 509,
      "Ġold": 510,
      "Ġalways": 511,
      "Ġeat": 512,
      "ily": 513,
      "ĠL": 514,
      "Ġits": 515,
      "Ġover": 516,
      "Ġtry": 517,
      "Ġ1": 518,
      "Ġkids": 519,
      "ag": 520,
      "ase": 521,
      "Ġoth": 522,
      "ause": 523,
      "'ll": 524,
      "Ġbad": 525,
      "ĠWe": 526,
      "Ġmus": 527,
      "Ġse": 528,
      "joy": 529,
      "Ġsorry": 530,
      "Ġsc": 531,
      "Ġlong": 532,
      "Ġwhere": 533,
      "Ġhas": 534,
      "Ġro": 535,
      "Ġfam": 536,
      "ment": 537,
      "Ġnever": 538,
      "Ġpret": 539,
      "ĠG": 540,
      "Ġmusic": 541,
      "ure": 542,
      "he": 543,
      "ist": 544,
      "Ġhard": 545,
      "ĠWell": 546,
      "itt": 547,
      "ĠHe": 548,
      "Ġby": 549,
      "Ġpretty": 550,
      "Ġenjoy": 551,
      "ect": 552,
      "Ġother": 553,
      "Ġwere": 554,
      "ĠDo": 555,
      "Ġqu": 556,
      "Ġlast": 557,
      "be": 558,
      "so": 559,
      "ose": 560,
      "Ġeven": 561,
      "ach": 562,
      "Ġdoes": 563,
      "Ġafter": 564,
      "Ġbecause": 565,
      "Ġtra": 566,
      "Ġtw": 567,
      "Ġ2": 568,
      "Ġour": 569,
      "Ġway": 570,
      "ue": 571,
      "ually": 572,
      "Ġthough": 573,
      "ace": 574,
      "Ġonly": 575,
      "ap": 576,
      "Ġok": 577,
      "Ġfamily": 578,
      "ble": 579,
      "ĠE": 580,
      "Ġhear": 581,
      "ip": 582,
      "Ġbl": 583,
      "Ġalso": 584,
      "ide": 585,
      "Ġfood": 586,
      "irst": 587,
      "esome": 588,
      "ang": 589,
      "Ġwho": 590,
      "ount": 591,
      "ild": 592,
      "ried": 593,
      "ade": 594,
      "ittle": 595,
      "Ġsomething": 596,
      "Ġmom": 597,
      "Ġlittle": 598,
      "Ġyears": 599,
      "ĠNo": 600,
      "Ġwon": 601,
      "ought": 602,
      "Ġke": 603,
      "Ġpart": 604,
      "Ġnight": 605,
      "Ġfriends": 606,
      "Ġtell": 607,
      "Ġthen": 608,
      "Ġstill": 609,
      "act": 610,
      "Ġbest": 611,
      "'re": 612,
      "Ġbu": 613,
      "ĠP": 614,
      "Ġbus": 615,
      "ity": 616,
      "Ġawesome": 617,
      "iz": 618,
      "00": 619,
      "ress": 620,
      "Ġthings": 621,
      "ft": 622,
      "cc": 623,
      "Ġstart": 624,
      "Ġfirst": 625,
      "Ġcat": 626,
      "Ġbetter": 627,
      "aking": 628,
      "Ġhey": 629,
      "ĠBut": 630,
      "ĠF": 631,
      "aybe": 632,
      "ance": 633,
      "Ġmar": 634,
      "Ġlife": 635,
      "Ġinto": 636,
      "Ġlol": 637,
      "Ġdis": 638,
      "Ġmust": 639,
      "ait": 640,
      "Ġhis": 641,
      "Ġexp": 642,
      "Ġhappen": 643,
      "Ġcoll": 644,
      "ooking": 645,
      "mb": 646,
      "Ġsw": 647,
      "ile": 648,
      "de": 649,
      "Ġdidn": 650,
      "Ġdr": 651,
      "cit": 652,
      "ated": 653,
      "Ġfin": 654,
      "uck": 655,
      "ĠYeah": 656,
      "Ġhappy": 657,
      "oney": 658,
      "Ġwow": 659,
      "Ġpro": 660,
      "Ġstud": 661,
      "ha": 662,
      "ouse": 663,
      "'d": 664,
      "xt": 665,
      "Ġapp": 666,
      "Ġtwo": 667,
      "ank": 668,
      "Ġtea": 669,
      "Ġwent": 670,
      "Ġlea": 671,
      "ire": 672,
      "Ġwait": 673,
      "akes": 674,
      "ary": 675,
      "Ġact": 676,
      "Ġsur": 677,
      "ious": 678,
      "ĠDid": 679,
      "Ġsm": 680,
      "Ġimp": 681,
      "Ġdri": 682,
      "Ġfind": 683,
      "Ġgetting": 684,
      "Ġsay": 685,
      "Ġmany": 686,
      "Ġte": 687,
      "Ġbig": 688,
      "Ġle": 689,
      "sit": 690,
      "ĠThey": 691,
      "Ġmoney": 692,
      "ĠJ": 693,
      "Ġprob": 694,
      "Ġfl": 695,
      "Ġ3": 696,
      "lease": 697,
      "Ġgir": 698,
      "ets": 699,
      "alk": 700,
      "Ġrel": 701,
      "Ġmost": 702,
      "vel": 703,
      "Ġad": 704,
      "Ġrec": 705,
      "Ġbeing": 706,
      "ĠAn": 707,
      "Ġanything": 708,
      "Ġexcit": 709,
      "Ġwhy": 710,
      "Ġwr": 711,
      "pr": 712,
      "Ġmov": 713,
      "ared": 714,
      "Ġhouse": 715,
      "Ġworking": 716,
      "Ġwish": 717,
      "age": 718,
      "Ġyeah": 719,
      "ather": 720,
      "fore": 721,
      "ost": 722,
      "ĠR": 723,
      "Ġton": 724,
      "Ġcome": 725,
      "Ġplan": 726,
      "ull": 727,
      "erest": 728,
      "Ġnext": 729,
      "ich": 730,
      "Ġdown": 731,
      "44": 732,
      "Ġcall": 733,
      "Ġkeep": 734,
      "Ġteach": 735,
      "Ġname": 736,
      "Ġlist": 737,
      "au": 738,
      "ian": 739,
      "Ġbefore": 740,
      "Ġlook": 741,
      "Ġmon": 742,
      "get": 743,
      "Ġshow": 744,
      "row": 745,
      "Ġinterest": 746,
      "Ġweekend": 747,
      "Ġdogs": 748,
      "Ġmor": 749,
      "eci": 750,
      "oin": 751,
      "Ġcare": 752,
      "ave": 753,
      "arent": 754,
      "Ġmorning": 755,
      "imes": 756,
      "able": 757,
      "Ġmyself": 758,
      "obb": 759,
      "ege": 760,
      "ise": 761,
      "Ġter": 762,
      "Ġchild": 763,
      "Ġliving": 764,
      "als": 765,
      "iss": 766,
      "mer": 767,
      "ball": 768,
      "Ġown": 769,
      "Ġcollege": 770,
      "ating": 771,
      "Ġsad": 772,
      "Ġaround": 773,
      "Ġmade": 774,
      "Ġever": 775,
      "og": 776,
      "Ġrun": 777,
      "ĠShe": 778,
      "11": 779,
      "Ġunder": 780,
      "ms": 781,
      "ince": 782,
      "az": 783,
      "oth": 784,
      "Ġpay": 785,
      "ro": 786,
      "Ġlisten": 787,
      "Ġmonth": 788,
      "Ġtonight": 789,
      "Ġve": 790,
      "ater": 791,
      "Ġhobb": 792,
      "mor": 793,
      "ren": 794,
      "ĠIs": 795,
      "Ġgl": 796,
      "Ġtheir": 797,
      "ised": 798,
      "Ġwhile": 799,
      "erson": 800,
      "Ġparent": 801,
      "oc": 802,
      "Ġterri": 803,
      "Ġplease": 804,
      "Ġlet": 805,
      "Ġfine": 806,
      "Ġdays": 807,
      "ĠSo": 808,
      "Ġanim": 809,
      "urn": 810,
      "ors": 811,
      "ife": 812,
      "ert": 813,
      "aught": 814,
      "oud": 815,
      "Ġused": 816,
      "ner": 817,
      "Ġmeet": 818,
      "Ġaway": 819,
      "Ġlooking": 820,
      "Ġperson": 821,
      "Ġsince": 822,
      "Ġph": 823,
      "Ġfew": 824,
      "ence": 825,
      "Ġgive": 826,
      "les": 827,
      "erv": 828,
      "Ġdone": 829,
      "Ġfar": 830,
      "Ġwatching": 831,
      "Ġsomeone": 832,
      "ied": 833,
      "Ġhigh": 834,
      "Ġsing": 835,
      "ooks": 836,
      "Ġstay": 837,
      "Ġyourself": 838,
      "ĠAre": 839,
      "Ġmean": 840,
      "Ġsame": 841,
      "any": 842,
      "Ġcont": 843,
      "ames": 844,
      "ĠWhy": 845,
      "Ġparents": 846,
      "Ġhate": 847,
      "ations": 848,
      "Ġmove": 849,
      "Ġvi": 850,
      "Ġacc": 851,
      "per": 852,
      "ĠAnd": 853,
      "Ġcount": 854,
      "Ġfo": 855,
      "Ġrem": 856,
      "Ġguess": 857,
      "oint": 858,
      "Ġdiff": 859,
      "lor": 860,
      "Ġwife": 861,
      "Ġagain": 862,
      "raid": 863,
      "Ġbrother": 864,
      "Ġthr": 865,
      "Ġsometimes": 866,
      "Ġput": 867,
      "lt": 868,
      "Ġmaybe": 869,
      "ieve": 870,
      "Ġready": 871,
      "Ġexcited": 872,
      "ng": 873,
      "Ġthank": 874,
      "Ġmiss": 875,
      "ash": 876,
      "Ġ5": 877,
      "Ġfeeling": 878,
      "oss": 879,
      "Ġlate": 880,
      "pt": 881,
      "Ġcook": 882,
      "Ġsurpr": 883,
      "sion": 884,
      "ident": 885,
      "Ġclass": 886,
      "Ġbre": 887,
      "Ġtrying": 888,
      "Ġthose": 889,
      "Ġhaving": 890,
      "Ġtravel": 891,
      "Ġbuy": 892,
      "Ġhus": 893,
      "Ġroom": 894,
      "Ġche": 895,
      "ĠCan": 896,
      "sive": 897,
      "Ġthought": 898,
      "ail": 899,
      "Ġper": 900,
      "Ġokay": 901,
      "Ġactually": 902,
      "Ġuse": 903,
      "Ġeverything": 904,
      "!,": 905,
      "Ġshop": 906,
      "ci": 907,
      "app": 908,
      "Ġbel": 909,
      "Ġmine": 910,
      "Ġplace": 911,
      "Ġsoon": 912,
      "assed": 913,
      "ange": 914,
      "ult": 915,
      "band": 916,
      "10": 917,
      "stand": 918,
      "Ġinteresting": 919,
      "ork": 920,
      "ĠThank": 921,
      "Ġplaying": 922,
      "Ġhusband": 923,
      "Ġsk": 924,
      "Ġluck": 925,
      "ently": 926,
      "Ġpo": 927,
      "Ġguy": 928,
      "ester": 929,
      "Ġmakes": 930,
      "Ġbit": 931,
      "Ġres": 932,
      "orm": 933,
      "Ġwonder": 934,
      "ax": 935,
      "Ġafraid": 936,
      "Ġbo": 937,
      "Ġcour": 938,
      "Ġcompany": 939,
      "Ġthanks": 940,
      "ĠGood": 941,
      "23": 942,
      "Ġglad": 943,
      "Ġlear": 944,
      "ple": 945,
      "ark": 946,
      "Ġhaha": 947,
      "Ġfelt": 948,
      "Ġhobbies": 949,
      "Ġunderstand": 950,
      "Ġthrough": 951,
      "Ġboy": 952,
      "Ġrest": 953,
      "Ġago": 954,
      "ix": 955,
      "side": 956,
      "Ġdad": 957,
      "ten": 958,
      "Ġson": 959,
      "Ġproble": 960,
      "ĠThere": 961,
      "ute": 962,
      "Ġable": 963,
      "Ġann": 964,
      "Ġend": 965,
      "ia": 966,
      "Ġfound": 967,
      "Ġstudy": 968,
      "Ġgirl": 969,
      "el": 970,
      "ired": 971,
      "Ġdrive": 972,
      "Ġgame": 973,
      "dy": 974,
      "emb": 975,
      "Ġbelieve": 976,
      "Ġtri": 977,
      "ings": 978,
      "Ġcle": 979,
      "alking": 980,
      "Ġpets": 981,
      "Ġsit": 982,
      "inking": 983,
      "Ġfish": 984,
      "Ġsupp": 985,
      "ond": 986,
      "Ġwin": 987,
      "ping": 988,
      "Ġask": 989,
      "Ġmarried": 990,
      "Ġhour": 991,
      "ĠCh": 992,
      "ressed": 993,
      "...": 994,
      "My": 995,
      "Ġsport": 996,
      "Ġreading": 997,
      "ward": 998,
      "Ġear": 999,
      "Ġel": 1000,
      "Ġinter": 1001,
      "Ġleft": 1002,
      "Ġhappened": 1003,
      "Ġfinish": 1004,
      "20": 1005,
      "ery": 1006,
      "Ġsaw": 1007,
      "izz": 1008,
      "eck": 1009,
      "Ġsuch": 1010,
      "Ġproud": 1011,
      "Ġconf": 1012,
      "ason": 1013,
      "Ġid": 1014,
      "amed": 1015,
      "17": 1016,
      "Ġreal": 1017,
      "anc": 1018,
      "Ġamaz": 1019,
      "ub": 1020,
      "Ġim": 1021,
      "ĠV": 1022,
      "Ġcountry": 1023,
      "Ġcolor": 1024,
      "Ġwanted": 1025,
      "Ġgames": 1026,
      "ĠHave": 1027,
      "iness": 1028,
      "Ġpizz": 1029,
      "Ġcra": 1030,
      "eal": 1031,
      "Ġheard": 1032,
      "ew": 1033,
      "Ġtomor": 1034,
      "Ġret": 1035,
      "Ġwhich": 1036,
      "leep": 1037,
      "if": 1038,
      "Ġtomorrow": 1039,
      "Ġ4": 1040,
      "Ġtaking": 1041,
      "Ġrecently": 1042,
      "Ġquite": 1043,
      "Ġspend": 1044,
      "gry": 1045,
      "Ġpizza": 1046,
      "ath": 1047,
      "Ġyet": 1048,
      "Ġdaught": 1049,
      "15": 1050,
      "Ġatt": 1051,
      "Ġpain": 1052,
      "oyed": 1053,
      "Ġprep": 1054,
      "Ġbir": 1055,
      "ady": 1056,
      "Ġsist": 1057,
      "Ġanother": 1058,
      "Ġcats": 1059,
      "Ġswe": 1060,
      "ĠWhen": 1061,
      "arr": 1062,
      "Ġmight": 1063,
      "Ġcr": 1064,
      "Ġart": 1065,
      "ĠWow": 1066,
      "Ġcourse": 1067,
      "fer": 1068,
      "Ġfoot": 1069,
      "Ġcame": 1070,
      "Ġanimals": 1071,
      "esterday": 1072,
      "Ġmovies": 1073,
      "Ġtook": 1074,
      "ably": 1075,
      "uff": 1076,
      "Ġdin": 1077,
      "Ġsurprised": 1078,
      "ully": 1079,
      "ict": 1080,
      "Ġgrand": 1081,
      "red": 1082,
      "oke": 1083,
      "Ġmin": 1084,
      "Ġmovie": 1085,
      "ĠThis": 1086,
      "Ġbusy": 1087,
      "Ġfree": 1088,
      "Ġstore": 1089,
      "gg": 1090,
      "Ġdiffer": 1091,
      "Ġthese": 1092,
      "ensive": 1093,
      "ans": 1094,
      "ember": 1095,
      "Ġamazing": 1096,
      "?,": 1097,
      "Ġbook": 1098,
      "Ġelse": 1099,
      "ock": 1100,
      "Ġhair": 1101,
      "Ġtalk": 1102,
      "Ġ...": 1103,
      "Ġwalk": 1104,
      "ĠIf": 1105,
      "ream": 1106,
      "ars": 1107,
      "Ġstr": 1108,
      "ĠU": 1109,
      "Ġthree": 1110,
      "ese": 1111,
      "Ġusually": 1112,
      "cks": 1113,
      "gic": 1114,
      "ĠMaybe": 1115,
      "Ġsec": 1116,
      "orn": 1117,
      "Ġhot": 1118,
      "Ġll": 1119,
      "yp": 1120,
      "anks": 1121,
      "Ġtimes": 1122,
      "Ġidea": 1123,
      "alth": 1124,
      "ions": 1125,
      "Ġsaid": 1126,
      "Ġgrad": 1127,
      "Ġworld": 1128,
      "Ġparty": 1129,
      "Ġbusiness": 1130,
      "ents": 1131,
      "ĠNot": 1132,
      "Ġsleep": 1133,
      "Ġcity": 1134,
      "Ġdec": 1135,
      "ord": 1136,
      "Ġonce": 1137,
      "Ġeating": 1138,
      "eak": 1139,
      "Ġyoung": 1140,
      "Ġleast": 1141,
      "Ġcheck": 1142,
      "Ġvide": 1143,
      "Ġband": 1144,
      "Ġlost": 1145,
      "ĠOK": 1146,
      "Ġenough": 1147,
      "Ġchildren": 1148,
      "Ġhand": 1149,
      "fully": 1150,
      "onely": 1151,
      "Ġstarted": 1152,
      "lish": 1153,
      "Ġstuff": 1154,
      "most": 1155,
      "Ġes": 1156,
      "Ġhor": 1157,
      "igh": 1158,
      "ecially": 1159,
      "Ġrelax": 1160,
      "Ġproblem": 1161,
      "gether": 1162,
      "aut": 1163,
      "Ġsports": 1164,
      "part": 1165,
      "Ġmind": 1166,
      "aw": 1167,
      "Ġdrink": 1168,
      "Ġeas": 1169,
      "Ġhaven": 1170,
      "ny": 1171,
      "Ġbooks": 1172,
      "Ġleave": 1173,
      "Ġturn": 1174,
      "unch": 1175,
      "Ġsuper": 1176,
      "fied": 1177,
      "Ġcur": 1178,
      "Ġlearn": 1179,
      "Ġboth": 1180,
      "Ġtrust": 1181,
      "Ġevening": 1182,
      "pecially": 1183,
      "Ġsum": 1184,
      "wh": 1185,
      "Ġhur": 1186,
      "Ġsn": 1187,
      "Ġcou": 1188,
      "Ġalone": 1189,
      "Ġtrip": 1190,
      "oon": 1191,
      "Ġbeach": 1192,
      "ket": 1193,
      "li": 1194,
      "rat": 1195,
      "Ġdinner": 1196,
      "lfriend": 1197,
      "Ġbirth": 1198,
      "Ġtogether": 1199,
      "Ġremember": 1200,
      "Ġvisit": 1201,
      "Ġtold": 1202,
      "na": 1203,
      "Ġalmost": 1204,
      "Ġcoming": 1205,
      "Ġbreak": 1206,
      "Ġred": 1207,
      "ĠThanks": 1208,
      "Ġdra": 1209,
      "Ġgirlfriend": 1210,
      "Ġtyp": 1211,
      "Ġyesterday": 1212,
      "Ġdoesn": 1213,
      "ealous": 1214,
      "Ġnothing": 1215,
      "Ġbeaut": 1216,
      "Ġoften": 1217,
      "Ġprobably": 1218,
      "Ġscared": 1219,
      "Ġcann": 1220,
      "Ġclean": 1221,
      "Ġac": 1222,
      "uri": 1223,
      "Ġhealth": 1224,
      "Ġtrue": 1225,
      "Ġswim": 1226,
      "Ġthinking": 1227,
      "Ġrep": 1228,
      "Ġsal": 1229,
      "umb": 1230,
      "ĠJust": 1231,
      "Ġinst": 1232,
      "Ġbab": 1233,
      "Ġdaughter": 1234,
      "ĠLet": 1235,
      "gust": 1236,
      "ffee": 1237,
      "Ġcomput": 1238,
      "Ġimport": 1239,
      "Ġmaking": 1240,
      "Ġmad": 1241,
      "ĠIn": 1242,
      "own": 1243,
      "Ġdifferent": 1244,
      "Ġwhats": 1245,
      "ience": 1246,
      "Ġfootball": 1247,
      "Ġcannot": 1248,
      "22": 1249,
      "Ġangry": 1250,
      "ne": 1251,
      "Ġcoffee": 1252,
      "ateful": 1253,
      "Ġseen": 1254,
      "Ġsummer": 1255,
      "Ġbought": 1256,
      "Ġop": 1257,
      "lic": 1258,
      "iew": 1259,
      "Ġsmall": 1260,
      "Ġbirthday": 1261,
      "aur": 1262,
      "Ġgi": 1263,
      "Ġvac": 1264,
      "Ġdef": 1265,
      "Ġteacher": 1266,
      "ongrat": 1267,
      "!!": 1268,
      "45": 1269,
      "Ġfast": 1270,
      "appoint": 1271,
      "Ġ6": 1272,
      "Ġterrible": 1273,
      "zy": 1274,
      "Ġtrain": 1275,
      "ighb": 1276,
      "Ġgre": 1277,
      "hip": 1278,
      "Ġneighb": 1279,
      "ĠWhere": 1280,
      "Th": 1281,
      "cal": 1282,
      "Ġoffice": 1283,
      "ither": 1284,
      "Ġmay": 1285,
      "br": 1286,
      "Ġimportant": 1287,
      "urious": 1288,
      "Ġisn": 1289,
      "Ġprefer": 1290,
      "Ġorder": 1291,
      "Ġ10": 1292,
      "ĠDon": 1293,
      "Ġsir": 1294,
      "Ġchar": 1295,
      "Ġsweet": 1296,
      "Ġespecially": 1297,
      "Ġhun": 1298,
      "xious": 1299,
      "partment": 1300,
      "Ġfinished": 1301,
      "Ġstop": 1302,
      "aurant": 1303,
      "Ġmother": 1304,
      "Ġmet": 1305,
      "ever": 1306,
      "ming": 1307,
      "ilty": 1308,
      "Ġprepared": 1309,
      "ory": 1310,
      "iful": 1311,
      "appointed": 1312,
      "19": 1313,
      "Ġappre": 1314,
      "Ġeveryone": 1315,
      "gan": 1316,
      "Ġhours": 1317,
      "Ġoutside": 1318,
      "Ġrestaurant": 1319,
      "ph": 1320,
      "Ġwonderful": 1321,
      "Ġemb": 1322,
      "Ġhead": 1323,
      "Ġspeci": 1324,
      "Ġclose": 1325,
      "Ġser": 1326,
      "Ġbas": 1327,
      "ental": 1328,
      "Ġbeautiful": 1329,
      "air": 1330,
      "Ġlistening": 1331,
      "ready": 1332,
      "Ġcooking": 1333,
      "Ġma": 1334,
      "line": 1335,
      "Ġtest": 1336,
      "Ġsister": 1337,
      "algic": 1338,
      "ĠMr": 1339,
      "Ġalready": 1340,
      "Ġbi": 1341,
      "Ġ'": 1342,
      "Ġagree": 1343,
      "Ġvideo": 1344,
      "Ġmonths": 1345,
      "Ġteam": 1346,
      "uct": 1347,
      "Ġlonely": 1348,
      "ĠK": 1349,
      "icip": 1350,
      "Ġeach": 1351,
      "Ġwasn": 1352,
      "ervous": 1353,
      "Ġprom": 1354,
      "Ġwrong": 1355,
      "let": 1356,
      "Ġnervous": 1357,
      "Ġnear": 1358,
      "Ġchange": 1359,
      "Ġcard": 1360,
      "Ġbaby": 1361,
      "ling": 1362,
      "gr": 1363,
      "ime": 1364,
      "een": 1365,
      "iv": 1366,
      "inite": 1367,
      "Ġpast": 1368,
      "Ġscary": 1369,
      "fort": 1370,
      "Ġtried": 1371,
      "Ġtv": 1372,
      "Ġmed": 1373,
      "Ġdoct": 1374,
      "Ġcrazy": 1375,
      "Ġjealous": 1376,
      "arrassed": 1377,
      "Ġseems": 1378,
      "ĠRe": 1379,
      "Ġconfident": 1380,
      "Ġu": 1381,
      "initely": 1382,
      "view": 1383,
      "Ġstudying": 1384,
      "Ġopen": 1385,
      "Ġ:": 1386,
      "Ġsun": 1387,
      "Ġbar": 1388,
      "vast": 1389,
      "Ġsl": 1390,
      "ize": 1391,
      "49": 1392,
      "Ġhu": 1393,
      "Ġweather": 1394,
      "ello": 1395,
      "Ġvacation": 1396,
      "ved": 1397,
      "26": 1398,
      "gusted": 1399,
      "set": 1400,
      "Ġunt": 1401,
      "Ġgradu": 1402,
      "ped": 1403,
      "ĠSure": 1404,
      "ates": 1405,
      "Ġpick": 1406,
      "Ġdes": 1407,
      "Ġins": 1408,
      "Ġperf": 1409,
      "Ġtired": 1410,
      "Ġwater": 1411,
      "Ġshopping": 1412,
      "Ġpur": 1413,
      "Ġdeal": 1414,
      "Ġuntil": 1415,
      "te": 1416,
      "ib": 1417,
      "Ġsick": 1418,
      "noon": 1419,
      "Ġcomputer": 1420,
      "vastated": 1421,
      "ertain": 1422,
      "ush": 1423,
      "Ġcam": 1424,
      "ican": 1425,
      "Ġafternoon": 1426,
      "Ġsent": 1427,
      "ont": 1428,
      "my": 1429,
      "Ġexper": 1430,
      "Ġgrow": 1431,
      "gn": 1432,
      "Ġthats": 1433,
      "Ġworked": 1434,
      "Ġmoved": 1435,
      "cept": 1436,
      "Ġnews": 1437,
      "ĠEx": 1438,
      "Ġexciting": 1439,
      "where": 1440,
      "ĠHere": 1441,
      "Ġten": 1442,
      "ular": 1443,
      "Ġmostly": 1444,
      "Ġmeat": 1445,
      "Ġconc": 1446,
      "ign": 1447,
      "Ġant": 1448,
      "icipating": 1449,
      "ĠWould": 1450,
      "erc": 1451,
      "Ġbed": 1452,
      "Ġinc": 1453,
      "Ġblue": 1454,
      "oh": 1455,
      "rent": 1456,
      "Ġwear": 1457,
      "ĠHello": 1458,
      "ics": 1459,
      "Ġeither": 1460,
      "Ġcomm": 1461,
      "Ġimpressed": 1462,
      "Ġhang": 1463,
      "Ġcold": 1464,
      "Ġpet": 1465,
      "ical": 1466,
      "Ġpol": 1467,
      "imental": 1468,
      "uring": 1469,
      "arden": 1470,
      "iday": 1471,
      "ĠOk": 1472,
      "Ġpass": 1473,
      "Ġgrateful": 1474,
      "Ġride": 1475,
      "ĠHi": 1476,
      "kes": 1477,
      "43": 1478,
      "oes": 1479,
      "Ġpres": 1480,
      "ition": 1481,
      "Ġposit": 1482,
      "Ġphone": 1483,
      "Ġdefinitely": 1484,
      "Ġanxious": 1485,
      "bo": 1486,
      "Ġinv": 1487,
      "Ġyea": 1488,
      "Ġext": 1489,
      "Ġrock": 1490,
      "Ġdep": 1491,
      "Ġwaiting": 1492,
      "Ġtype": 1493,
      "ret": 1494,
      "Ġ7": 1495,
      "Ġtick": 1496,
      "Ġgarden": 1497,
      "Ġbring": 1498,
      "Ġguilty": 1499,
      "Ġcurrent": 1500,
      "ons": 1501,
      "Ġrain": 1502,
      "ma": 1503,
      "Ġwithout": 1504,
      "Ġcalled": 1505,
      "Ġdisappointed": 1506,
      "Ġrunning": 1507,
      "Ġannoyed": 1508,
      "Ġdriving": 1509,
      "ject": 1510,
      "Ġupset": 1511,
      "Ġspecial": 1512,
      "455": 1513,
      "ures": 1514,
      "ah": 1515,
      "Ġonline": 1516,
      "Ġweeks": 1517,
      "27": 1518,
      "ness": 1519,
      "Ġ-": 1520,
      "Ġcal": 1521,
      "Ġfinally": 1522,
      "Ġwrite": 1523,
      "ding": 1524,
      "gest": 1525,
      "Ġterrified": 1526,
      "Ġlots": 1527,
      "Ġwalking": 1528,
      "Ġlater": 1529,
      "ounds": 1530,
      "Ġseem": 1531,
      "cial": 1532,
      "Ġeng": 1533,
      "16": 1534,
      "Ġdoll": 1535,
      "Ġanyone": 1536,
      "Ġset": 1537,
      "Ġpassed": 1538,
      "Ġshort": 1539,
      "Ġdance": 1540,
      "ĠVe": 1541,
      "Ġspeak": 1542,
      "85": 1543,
      "man": 1544,
      "Ġadv": 1545,
      "Ġlucky": 1546,
      "ĠAll": 1547,
      "Ġcouple": 1548,
      "Ġfull": 1549,
      "Ġtalking": 1550,
      "Ġtot": 1551,
      "Ġpark": 1552,
      "old": 1553,
      "Ġprof": 1554,
      "Ġforward": 1555,
      "atter": 1556,
      "ves": 1557,
      "Ġey": 1558,
      "Ġdoctor": 1559,
      "Ġnost": 1560,
      "25": 1561,
      "Ġmil": 1562,
      "Ġsingle": 1563,
      "ĠChin": 1564,
      "Ġsell": 1565,
      "Ġpar": 1566,
      "Ġinterview": 1567,
      "less": 1568,
      "Ġjoy": 1569,
      "ird": 1570,
      "Ġreason": 1571,
      "Ġlaw": 1572,
      "ĠSt": 1573,
      "Ġknew": 1574,
      "Ġcouldn": 1575,
      "Ġeasy": 1576,
      "Ġfall": 1577,
      "Ġra": 1578,
      "Ġmoment": 1579,
      "Ġwom": 1580,
      "Ġinf": 1581,
      "Ġemp": 1582,
      "io": 1583,
      "ense": 1584,
      "Ġapartment": 1585,
      "Ġimag": 1586,
      "friend": 1587,
      "Ġhop": 1588,
      "Ġgets": 1589,
      "Ġasking": 1590,
      "Ġexam": 1591,
      "Ġwhole": 1592,
      "Ġpract": 1593,
      "Ġcars": 1594,
      "Ġearly": 1595,
      "Ġdate": 1596,
      "Ġplans": 1597,
      "ĠReally": 1598,
      "ger": 1599,
      "Ġrid": 1600,
      "iver": 1601,
      "Ġent": 1602,
      "Ġ8": 1603,
      "ier": 1604,
      "Ġduring": 1605,
      "Ġnostalgic": 1606,
      "Ġworry": 1607,
      "Ġdraw": 1608,
      "Ġbill": 1609,
      "Ġfore": 1610,
      "Ġstudent": 1611,
      "Ġbor": 1612,
      "95": 1613,
      "Ġ20": 1614,
      "its": 1615,
      "Ġwrit": 1616,
      "Ġfan": 1617,
      "rist": 1618,
      "cy": 1619,
      "Ġboss": 1620,
      "444": 1621,
      "Ġhurt": 1622,
      "76": 1623,
      "Ġembarrassed": 1624,
      "Ġfunny": 1625,
      "18": 1626,
      "Wh": 1627,
      "Ġmemor": 1628,
      "hensive": 1629,
      "ĠWas": 1630,
      "Ġboyfriend": 1631,
      "iet": 1632,
      "Ġgen": 1633,
      "ithful": 1634,
      "Ġhopeful": 1635,
      "ĠIts": 1636,
      "Ġtough": 1637,
      "Ġneighbor": 1638,
      "Ġsub": 1639,
      "onna": 1640,
      "ĠMay": 1641,
      "osed": 1642,
      "Ġnumb": 1643,
      "Ġguys": 1644,
      "Ġexperience": 1645,
      "ession": 1646,
      "Ġlocal": 1647,
      "Ġfather": 1648,
      "Ġlunch": 1649,
      "Ġsucks": 1650,
      "olog": 1651,
      "That": 1652,
      "ĠNow": 1653,
      "do": 1654,
      "Ġfurious": 1655,
      "Ġfarm": 1656,
      "ĠThen": 1657,
      "ately": 1658,
      "av": 1659,
      "Ġaff": 1660,
      "ower": 1661,
      "ĠCould": 1662,
      "Ġair": 1663,
      "Ġserv": 1664,
      "Ġreg": 1665,
      "itch": 1666,
      "Ġdisgusted": 1667,
      "Ġcontent": 1668,
      "ouble": 1669,
      "Ġfishing": 1670,
      "Ġpop": 1671,
      "ĠSome": 1672,
      "Ġash": 1673,
      "Ġfour": 1674,
      "ude": 1675,
      "Ġblack": 1676,
      "Ġnur": 1677,
      "Ġstand": 1678,
      "Ġdied": 1679,
      "llow": 1680,
      "erg": 1681,
      "ulations": 1682,
      "ries": 1683,
      "Ġexerc": 1684,
      "sible": 1685,
      "Ġgone": 1686,
      "Ġbroke": 1687,
      "Ġmeeting": 1688,
      "utes": 1689,
      "29": 1690,
      "land": 1691,
      "Ġev": 1692,
      "att": 1693,
      "Ġcloth": 1694,
      "Ġrather": 1695,
      "Ġashamed": 1696,
      "ww": 1697,
      "Ġwouldn": 1698,
      "ones": 1699,
      "Ġforg": 1700,
      "ager": 1701,
      "ues": 1702,
      "Ġvegan": 1703,
      "ital": 1704,
      "Ġaccount": 1705,
      "Ġfix": 1706,
      "Ġbase": 1707,
      "Ġworks": 1708,
      "Ġcake": 1709,
      "Ġrelaxing": 1710,
      "Ġtown": 1711,
      "Ġworried": 1712,
      "Ġoffer": 1713,
      "Ġimagine": 1714,
      "Ġless": 1715,
      "ided": 1716,
      "cuse": 1717,
      "Ġhorri": 1718,
      "Ġfive": 1719,
      "actly": 1720,
      "Ġanticipating": 1721,
      "46": 1722,
      "ĠHope": 1723,
      "Ġminutes": 1724,
      "ead": 1725,
      "Ġdevastated": 1726,
      "aid": 1727,
      "ym": 1728,
      "It": 1729,
      "Ġlooks": 1730,
      "33": 1731,
      "Ġice": 1732,
      "work": 1733,
      "Ġjoyful": 1734,
      "ex": 1735,
      "Ġguit": 1736,
      "Ġphot": 1737,
      "Ġwinter": 1738,
      "ĠBe": 1739,
      "Ġaccident": 1740,
      "Ġsecond": 1741,
      "ked": 1742,
      "Ġcant": 1743,
      "Ġheart": 1744,
      "onest": 1745,
      "116": 1746,
      "Ġadd": 1747,
      "ities": 1748,
      "Ġside": 1749,
      "Ġcut": 1750,
      "Ġmess": 1751,
      "ature": 1752,
      "Ġdanc": 1753,
      "Ġgave": 1754,
      "Ġprod": 1755,
      "Ġ\"": 1756,
      "ongratulations": 1757,
      "Ġcaring": 1758,
      "come": 1759,
      "more": 1760,
      "Ġgonna": 1761,
      "Ġseason": 1762,
      "Ġate": 1763,
      "aper": 1764,
      "Ġclothes": 1765,
      "Ġfact": 1766,
      "Ġdream": 1767,
      "Ġhappens": 1768,
      "bs": 1769,
      "ient": 1770,
      "Ġolder": 1771,
      "ĠEng": 1772,
      "Ġdisc": 1773,
      "Ġveget": 1774,
      "mm": 1775,
      "ump": 1776,
      "Ġlately": 1777,
      "Ġpict": 1778,
      "Ġrelations": 1779,
      "Ġele": 1780,
      "Ġguitar": 1781,
      "Ġgoes": 1782,
      "osp": 1783,
      "hood": 1784,
      "Ġgym": 1785,
      "Ġmaj": 1786,
      "Ġface": 1787,
      "uc": 1788,
      "Ġhealthy": 1789,
      "Ġcurrently": 1790,
      "Ġfront": 1791,
      "Ġtruck": 1792,
      "Ġsentimental": 1793,
      "oup": 1794,
      "Ġsim": 1795,
      "Ġcow": 1796,
      "otion": 1797,
      "Ġexpensive": 1798,
      "Ġball": 1799,
      "Ġones": 1800,
      "Ġanymore": 1801,
      "ĠOf": 1802,
      "Ġz": 1803,
      "Ġbank": 1804,
      "pped": 1805,
      "Ġstress": 1806,
      "ĠPlease": 1807,
      "oice": 1808,
      "Ġwar": 1809,
      "Ġlar": 1810,
      "Ġdiffic": 1811,
      "led": 1812,
      "Ġconsi": 1813,
      "Ġmarket": 1814,
      "reet": 1815,
      "Ġcute": 1816,
      "Ġbuild": 1817,
      "aces": 1818,
      "Ġexpect": 1819,
      "Ġbasket": 1820,
      "Ġhuge": 1821,
      "ual": 1822,
      "Ġhiking": 1823,
      "ĠWho": 1824,
      "ĠIm": 1825,
      "Ġswimming": 1826,
      "Ġed": 1827,
      "ds": 1828,
      "atur": 1829,
      "Ġinstead": 1830,
      "fortun": 1831,
      "Ġcor": 1832,
      "Ġtall": 1833,
      "rect": 1834,
      "Ġind": 1835,
      "room": 1836,
      "Ġhobby": 1837,
      "Ġcatch": 1838,
      "Ġrelationship": 1839,
      "Ġ9": 1840,
      "leas": 1841,
      "Ġweight": 1842,
      "Ġconcert": 1843,
      "Ġnumber": 1844,
      "87": 1845,
      "ens": 1846,
      "Ġpu": 1847,
      "Ġcost": 1848,
      "Ġawful": 1849,
      "Ġhorrible": 1850,
      "Ġsong": 1851,
      "Ġfil": 1852,
      "Ġresp": 1853,
      "Ġdifficult": 1854,
      "ĠSorry": 1855,
      "Ġmajor": 1856,
      "Ġlight": 1857,
      "lete": 1858,
      "Ġhosp": 1859,
      "Ġsib": 1860,
      "Ġanimal": 1861,
      "Ġdecided": 1862,
      "Ġcomes": 1863,
      "Ġexercise": 1864,
      "ĠEvery": 1865,
      "Ġtrusting": 1866,
      "ef": 1867,
      "Ġloved": 1868,
      "Ġservice": 1869,
      "Ġhonest": 1870,
      "Ġgift": 1871,
      "ertainly": 1872,
      "Ġstate": 1873,
      "Ġhelps": 1874,
      "ocol": 1875,
      "Ġprofession": 1876,
      "Ġfly": 1877,
      "Ġdesi": 1878,
      "Ġgreen": 1879,
      "ann": 1880,
      "Ġwind": 1881,
      "Ġsocc": 1882,
      "Ġyours": 1883,
      "Ġchick": 1884,
      "Ġworth": 1885,
      "Ġpaint": 1886,
      "Ġbasketball": 1887,
      "Ġpos": 1888,
      "arian": 1889,
      "Ġdeg": 1890,
      "Ġsoccer": 1891,
      "cle": 1892,
      "Ġperfect": 1893,
      "Ġwed": 1894,
      "Ġmain": 1895,
      "unk": 1896,
      "ĠFr": 1897,
      "Ġsitu": 1898,
      "Ġsign": 1899,
      "Ġmid": 1900,
      "Ġdoor": 1901,
      "Ġdiet": 1902,
      "lings": 1903,
      "ins": 1904,
      "int": 1905,
      "ĠMe": 1906,
      "Ġhoping": 1907,
      "Ġpot": 1908,
      "Ġav": 1909,
      "ĠHey": 1910,
      "Ġasked": 1911,
      "59": 1912,
      "aring": 1913,
      "Ġgrade": 1914,
      "Ġmatter": 1915,
      "Ġquick": 1916,
      "ĠEnglish": 1917,
      "Ġweird": 1918,
      "Ġchocol": 1919,
      "Ġalong": 1920,
      "ats": 1921,
      "Ġgirls": 1922,
      "Ġroad": 1923,
      "ial": 1924,
      "ĠExcuse": 1925,
      "Ġforgot": 1926,
      "Ġcream": 1927,
      "ĠAt": 1928,
      "sing": 1929,
      "Ġaut": 1930,
      "Ġage": 1931,
      "Ġappreci": 1932,
      "Ġ;": 1933,
      "ĠSounds": 1934,
      "by": 1935,
      "ention": 1936,
      "ited": 1937,
      "Ġref": 1938,
      "Ġplayed": 1939,
      "Ġclasses": 1940,
      "Ġempl": 1941,
      "ĠHa": 1942,
      "ĠSomet": 1943,
      "ĠThats": 1944,
      "Ġhospital": 1945,
      "Ġyog": 1946,
      "Ġchance": 1947,
      "irt": 1948,
      "mas": 1949,
      "Ġhum": 1950,
      "Ġfit": 1951,
      "Ġdont": 1952,
      "ages": 1953,
      "Ġchocolate": 1954,
      "ane": 1955,
      "ida": 1956,
      "Ġseeing": 1957,
      "Ġdollars": 1958,
      "80": 1959,
      "86": 1960,
      "ract": 1961,
      "Ġtast": 1962,
      "Ġtakes": 1963,
      "ustr": 1964,
      "Ġgroc": 1965,
      "dle": 1966,
      "Ġalright": 1967,
      "Ġplanning": 1968,
      "ica": 1969,
      "Ġsocial": 1970,
      "amp": 1971,
      "key": 1972,
      "Ġsug": 1973,
      "Ġserious": 1974,
      "Ġpoint": 1975,
      "ices": 1976,
      "Ġhows": 1977,
      "Ġprice": 1978,
      "Ġintern": 1979,
      "ffic": 1980,
      "Ġbro": 1981,
      "Ġconsider": 1982,
      "lain": 1983,
      "Ġpri": 1984,
      "Ġsiblings": 1985,
      "olute": 1986,
      "lcome": 1987,
      "Ġtotally": 1988,
      "Ġpub": 1989,
      "ĠNice": 1990,
      "ocked": 1991,
      "em": 1992,
      "ots": 1993,
      "Ġarea": 1994,
      "Ġsend": 1995,
      "Ġproduct": 1996,
      "50": 1997,
      "Ġrece": 1998,
      "Ġmemories": 1999,
      "24": 2000,
      "Ġextra": 2001,
      "sid": 2002,
      "Ġshows": 2003,
      "Ġbike": 2004,
      "ants": 2005,
      "Ġca": 2006,
      "Ġenjoying": 2007,
      "angu": 2008,
      "Ġyoga": 2009,
      "Ġchat": 2010,
      "ecting": 2011,
      "Ġbecome": 2012,
      "Ġbur": 2013,
      "Ġtrouble": 2014,
      "dd": 2015,
      "Ġpack": 2016,
      "Ġlose": 2017,
      "Ġneeded": 2018,
      "Ġapprehensive": 2019,
      "ike": 2020,
      "Ġsy": 2021,
      "ative": 2022,
      "ĠSh": 2023,
      "Ġgross": 2024,
      "ced": 2025,
      "ĠYour": 2026,
      "Ġran": 2027,
      "Ġquest": 2028,
      "ĠAny": 2029,
      "Ġdegree": 2030,
      "dis": 2031,
      "time": 2032,
      "Ġtop": 2033,
      "Ġpleas": 2034,
      "Ġvol": 2035,
      "Ġinterested": 2036,
      "Ġbrothers": 2037,
      "Ġwriting": 2038,
      "Ġaren": 2039,
      "Ġmanager": 2040,
      "ristmas": 2041,
      "Ġlangu": 2042,
      "Ġpaid": 2043,
      "ĠFor": 2044,
      "Ġbeer": 2045,
      "Ġsurf": 2046,
      "30": 2047,
      "Ġjobs": 2048,
      "ically": 2049,
      "Ġchang": 2050,
      "000": 2051,
      "Ġannoy": 2052,
      "pl": 2053,
      "ugg": 2054,
      "Ġdrop": 2055,
      "Ġsever": 2056,
      "Ġir": 2057,
      "Ġworst": 2058,
      "Ġalot": 2059,
      "Ġsitting": 2060,
      "Ġgod": 2061,
      "sh": 2062,
      "Ġfig": 2063,
      "Ġcreat": 2064,
      "Ġsmart": 2065,
      "Ġreturn": 2066,
      "Ġbaseball": 2067,
      "Ġsix": 2068,
      "Ġhalf": 2069,
      "ĠTo": 2070,
      "Ġexactly": 2071,
      "Ġclassi": 2072,
      "Ġtrans": 2073,
      "Ġinform": 2074,
      "Ġabs": 2075,
      "Ġroll": 2076,
      "Ġah": 2077,
      "Ġborn": 2078,
      "Ġkill": 2079,
      "eep": 2080,
      "Ġposition": 2081,
      "Ġwoman": 2082,
      "sity": 2083,
      "Ġital": 2084,
      "outh": 2085,
      "Ġstreet": 2086,
      "apan": 2087,
      "Ġtech": 2088,
      "ĠWill": 2089,
      "rench": 2090,
      "Ġfollow": 2091,
      "Ġline": 2092,
      "Ġcollect": 2093,
      "Ġoutdo": 2094,
      "ĠAl": 2095,
      "40": 2096,
      "Ġfight": 2097,
      "Ġfair": 2098,
      "Ġunfortun": 2099,
      "Ġafford": 2100,
      "ĠOne": 2101,
      "olutely": 2102,
      "ned": 2103,
      "Ġem": 2104,
      "resh": 2105,
      "ald": 2106,
      "over": 2107,
      "Ġdress": 2108,
      "Ġseveral": 2109,
      "Ġmot": 2110,
      "Ġhike": 2111,
      "ohn": 2112,
      "me": 2113,
      "Ġloves": 2114,
      "Ġfaithful": 2115,
      "Ġtreat": 2116,
      "Ġdeli": 2117,
      "Ġwedding": 2118,
      "gu": 2119,
      "Ġcop": 2120,
      "Ġforget": 2121,
      "urance": 2122,
      "Ġeveryday": 2123,
      "Ġsecret": 2124,
      "Ġshoes": 2125,
      "ĠHopefully": 2126,
      "Ġiss": 2127,
      "Ġsituation": 2128,
      "Ġfut": 2129,
      "Ġkeeps": 2130,
      "Ġlearned": 2131,
      "Ġlarge": 2132,
      "Ġhol": 2133,
      "ĠDoes": 2134,
      "Ġstarting": 2135,
      "ĠAs": 2136,
      "gram": 2137,
      "Ġprogram": 2138,
      "Ġended": 2139,
      "ĠChinese": 2140,
      "Ġticket": 2141,
      "raph": 2142,
      "Ġfuture": 2143,
      "Ġland": 2144,
      "Ġspare": 2145,
      "ted": 2146,
      "Ġcompet": 2147,
      "Ġhanging": 2148,
      "Ġchicken": 2149,
      "Ġsupposed": 2150,
      "Ġnurse": 2151,
      "Ġpassi": 2152,
      "enty": 2153,
      "Ġdist": 2154,
      "iversity": 2155,
      "Ġboring": 2156,
      "ween": 2157,
      "Ġpie": 2158,
      "ored": 2159,
      "Ġcash": 2160,
      "Ġsort": 2161,
      "Ġenv": 2162,
      "Ġturned": 2163,
      "39": 2164,
      "ines": 2165,
      "Ġfell": 2166,
      "ables": 2167,
      "ney": 2168,
      "Ġcover": 2169,
      "Ġwatched": 2170,
      "Ġcomplete": 2171,
      "Ġinsurance": 2172,
      "Ġnamed": 2173,
      "Ġmoving": 2174,
      "Ġdead": 2175,
      "Ġothers": 2176,
      "The": 2177,
      "gs": 2178,
      "Ġhold": 2179,
      "Ġlibr": 2180,
      "Ġcred": 2181,
      "Ġpian": 2182,
      "Ġclub": 2183,
      "Ġlearning": 2184,
      "Ġsales": 2185,
      "ongrats": 2186,
      "Ġbetween": 2187,
      "Ġsmell": 2188,
      "port": 2189,
      "Ġfant": 2190,
      "omp": 2191,
      "unte": 2192,
      "Ġpromotion": 2193,
      "Ġeyes": 2194,
      "Ġfre": 2195,
      "Ġfav": 2196,
      "Ġannoying": 2197,
      "Ġbag": 2198,
      "ized": 2199,
      "Ġsmo": 2200,
      "Ġartist": 2201,
      "ĠSometimes": 2202,
      "ole": 2203,
      "Ġfresh": 2204,
      "ĠOn": 2205,
      "Ġimpres": 2206,
      "Ġbox": 2207,
      "100": 2208,
      "Ġwall": 2209,
      "Ġpaper": 2210,
      "Ġlovely": 2211,
      "ĠWhich": 2212,
      "ational": 2213,
      "Ġcase": 2214,
      "Ġspent": 2215,
      "ield": 2216,
      "Ġhopefully": 2217,
      "Ġlives": 2218,
      "ountain": 2219,
      "Ġproject": 2220,
      "Ġgraduated": 2221,
      "Ġpurple": 2222,
      "Ġvolunte": 2223,
      "Ġgener": 2224,
      "Ġform": 2225,
      "Ġstar": 2226,
      "ments": 2227,
      "cess": 2228,
      "ĠGo": 2229,
      "Ġpolice": 2230,
      "Ġsafe": 2231,
      "Ġce": 2232,
      "anger": 2233,
      "Ġdriver": 2234,
      "Ġtour": 2235,
      "ppy": 2236,
      "Ġremind": 2237,
      "Ġkinds": 2238,
      "Ġcowork": 2239,
      "Ġemploy": 2240,
      "ying": 2241,
      "erve": 2242,
      "aps": 2243,
      "Ġflor": 2244,
      "Ġriding": 2245,
      "Ġfeels": 2246,
      "Ġsays": 2247,
      "prised": 2248,
      "Ġpossible": 2249,
      "Ġstra": 2250,
      "ums": 2251,
      "Ġtraffic": 2252,
      "Ġcheese": 2253,
      "ters": 2254,
      "ĠAmer": 2255,
      "Ġneeds": 2256,
      "ape": 2257,
      "Ġattend": 2258,
      "Ġsisters": 2259,
      "Ġstep": 2260,
      "Ġdirect": 2261,
      "ior": 2262,
      "Ġdelic": 2263,
      "Ġsurprise": 2264,
      "Ġsupport": 2265,
      "cl": 2266,
      "Ġbrought": 2267,
      "Ġsave": 2268,
      "Ġ15": 2269,
      "Ġself": 2270,
      "ĠUn": 2271,
      "ken": 2272,
      "445": 2273,
      "Ġpiano": 2274,
      "Ġdish": 2275,
      "Ġ30": 2276,
      "Ġinstr": 2277,
      "Ġvolunteer": 2278,
      "ai": 2279,
      "med": 2280,
      "sur": 2281,
      "ĠAw": 2282,
      "Ġboys": 2283,
      "Ġproblems": 2284,
      "Ġbud": 2285,
      "Ġfill": 2286,
      "cell": 2287,
      "Ġdancing": 2288,
      "Ġpassion": 2289,
      "ility": 2290,
      "Ġtenn": 2291,
      "Ġpictures": 2292,
      "Ġcredit": 2293,
      "ber": 2294,
      "Ġmag": 2295,
      "Ġwants": 2296,
      "ove": 2297,
      "Ġcup": 2298,
      "fl": 2299,
      "ising": 2300,
      "ustom": 2301,
      "ĠGreat": 2302,
      "Ġpractice": 2303,
      "Ġgrocery": 2304,
      "Ġflorida": 2305,
      "Ġpool": 2306,
      "Ġpresent": 2307,
      "Ġworse": 2308,
      "Ġholiday": 2309,
      "Ġyounger": 2310,
      "yle": 2311,
      "usting": 2312,
      "Ġplaces": 2313,
      "Ġdidnt": 2314,
      "Ġoutdoors": 2315,
      "28": 2316,
      "Ġthrow": 2317,
      "Ġtraveling": 2318,
      "augh": 2319,
      "surprised": 2320,
      "Ġrough": 2321,
      "38": 2322,
      "aken": 2323,
      "gin": 2324,
      "Ġbum": 2325,
      "Ġjoin": 2326,
      "Ġru": 2327,
      "Ġaccept": 2328,
      "ift": 2329,
      "Ġmountain": 2330,
      "Ġlaugh": 2331,
      "astic": 2332,
      "Ġya": 2333,
      "Ġlake": 2334,
      "Ġweekends": 2335,
      "99": 2336,
      "rit": 2337,
      "ĠNew": 2338,
      "Ġdelicious": 2339,
      "uce": 2340,
      "Ġwal": 2341,
      "Ġmist": 2342,
      "Ġmex": 2343,
      "iforn": 2344,
      "Ġpost": 2345,
      "Ġchoice": 2346,
      "Ġquiet": 2347,
      "70": 2348,
      "omm": 2349,
      "oose": 2350,
      "ada": 2351,
      "Ġqual": 2352,
      "Ġtraining": 2353,
      "Ġegg": 2354,
      "Ġtal": 2355,
      "Ġdark": 2356,
      "Ġpull": 2357,
      "Ġgroup": 2358,
      "orses": 2359,
      "uit": 2360,
      "Ġmath": 2361,
      "Ġcustom": 2362,
      "ology": 2363,
      "Ġrent": 2364,
      "ifornia": 2365,
      "Ġhorses": 2366,
      "ys": 2367,
      "Ġfail": 2368,
      "ĠOkay": 2369,
      "body": 2370,
      "pect": 2371,
      "icy": 2372,
      "ĠYea": 2373,
      "Ġnovel": 2374,
      "Ġspea": 2375,
      "Ġbrown": 2376,
      "mother": 2377,
      "Ġanyway": 2378,
      "Ġinformation": 2379,
      "head": 2380,
      "osit": 2381,
      "Ġtable": 2382,
      "Ġsteak": 2383,
      "Ġtennis": 2384,
      "lo": 2385,
      "ĠWere": 2386,
      "48": 2387,
      "bt": 2388,
      "rill": 2389,
      "Ġcareer": 2390,
      "Ġdet": 2391,
      "Ġlived": 2392,
      "Ġflight": 2393,
      "Ġstor": 2394,
      "Ġallow": 2395,
      "Oh": 2396,
      "Ġbak": 2397,
      "urch": 2398,
      "Ġhelped": 2399,
      "ails": 2400,
      "Ġelect": 2401,
      "fast": 2402,
      "Ġnames": 2403,
      "Ġshocked": 2404,
      "200": 2405,
      "ĠAf": 2406,
      "Ġpainting": 2407,
      "Ġappreciate": 2408,
      "Ġitalian": 2409,
      "Ġcaught": 2410,
      "Ġspr": 2411,
      "Ġimpressive": 2412,
      "ton": 2413,
      "str": 2414,
      "ouch": 2415,
      "used": 2416,
      "Ġnorm": 2417,
      "Ġbeh": 2418,
      "ĠCongratulations": 2419,
      "Ġfeet": 2420,
      "ces": 2421,
      "Ġbeat": 2422,
      "Ġpersonal": 2423,
      "ific": 2424,
      "Ġwindow": 2425,
      "Ġfigure": 2426,
      "Ġda": 2427,
      "Ġbra": 2428,
      "Ġopp": 2429,
      "Ġchea": 2430,
      "Ġcol": 2431,
      "Ġreceive": 2432,
      "Ġtechn": 2433,
      "Ġyell": 2434,
      "Ġwelcome": 2435,
      "Ġuniversity": 2436,
      "35": 2437,
      "min": 2438,
      "Ġsat": 2439,
      "Ġinside": 2440,
      "ĠAh": 2441,
      "Ġprop": 2442,
      "tr": 2443,
      "Ġchurch": 2444,
      "Ġbreakfast": 2445,
      "Ġtaken": 2446,
      "Ġsense": 2447,
      "Ġliked": 2448,
      "ama": 2449,
      "Ġlooked": 2450,
      "Ġmeans": 2451,
      "aturday": 2452,
      "Ġmiddle": 2453,
      "ls": 2454,
      "Ġmeal": 2455,
      "Ġdrinking": 2456,
      "ograph": 2457,
      "Ġcele": 2458,
      "Ġyork": 2459,
      "ili": 2460,
      "Ġgrandmother": 2461,
      "34": 2462,
      "oot": 2463,
      "ube": 2464,
      "Ġri": 2465,
      "Ġjapan": 2466,
      "Ġquit": 2467,
      "Ġglass": 2468,
      "Ġhotel": 2469,
      "Ġabsolutely": 2470,
      "Ġfrench": 2471,
      "Ġcelebr": 2472,
      "Ġyum": 2473,
      "Ġrap": 2474,
      "Ġflo": 2475,
      "238": 2476,
      "Ġbehind": 2477,
      "Ġtac": 2478,
      "ster": 2479,
      "rew": 2480,
      "Ġ12": 2481,
      "aged": 2482,
      "Ġkept": 2483,
      "wards": 2484,
      "Ġminute": 2485,
      "Ġraise": 2486,
      "Ġmen": 2487,
      "Ġexpecting": 2488,
      "Ġsuggest": 2489,
      "Ġmail": 2490,
      "ote": 2491,
      "tery": 2492,
      "Ġfrustr": 2493,
      "ĠOur": 2494,
      "Ġsaving": 2495,
      "170": 2496,
      "Ġfire": 2497,
      "ockey": 2498,
      "Ġshel": 2499,
      "Ġkinda": 2500,
      "Ġretired": 2501,
      "Ġbills": 2502,
      "60": 2503,
      "Ġlikes": 2504,
      "chool": 2505,
      "Ġhist": 2506,
      "af": 2507,
      "Ġbake": 2508,
      "Ġcandy": 2509,
      "Ġ100": 2510,
      "Ġpositive": 2511,
      "Ġtickets": 2512,
      "irty": 2513,
      "ta": 2514,
      "Ġpink": 2515,
      "Ġnature": 2516,
      "Ġfamous": 2517,
      "Ġsuppose": 2518,
      "21": 2519,
      "cer": 2520,
      "Ġbunch": 2521,
      "Ġgam": 2522,
      "Ġsuit": 2523,
      "Ġtru": 2524,
      "Ġneighbors": 2525,
      "Ġhockey": 2526,
      "Ġpregn": 2527,
      "Ġhorse": 2528,
      "Ġcleaning": 2529,
      "Ġclim": 2530,
      "Ġsea": 2531,
      "Ġsinging": 2532,
      "Ġincl": 2533,
      "oll": 2534,
      "ĠSm": 2535,
      "ĠBy": 2536,
      "azz": 2537,
      "Ġcamping": 2538,
      "pre": 2539,
      "Ġeff": 2540,
      "Ġcause": 2541,
      "Ġsched": 2542,
      "Ġpartner": 2543,
      "ina": 2544,
      "Ġbaking": 2545,
      "vest": 2546,
      "Ġpower": 2547,
      "aster": 2548,
      "ĠLast": 2549,
      "ĠLook": 2550,
      "deed": 2551,
      "Ġchildhood": 2552,
      "Ġresult": 2553,
      "avy": 2554,
      "Ġdue": 2555,
      "cited": 2556,
      "Ġpaying": 2557,
      "Ġstrong": 2558,
      "uan": 2559,
      "ĠMon": 2560,
      "Ġcalling": 2561,
      "Ġteaching": 2562,
      "com": 2563,
      "Ġlady": 2564,
      "ĠTV": 2565,
      "Ġkitch": 2566,
      "190": 2567,
      "Ġeye": 2568,
      "Ġtre": 2569,
      "Ġhar": 2570,
      "Ġsand": 2571,
      "Ġsem": 2572,
      "Ġ50": 2573,
      "Ġdrag": 2574,
      "ĠChina": 2575,
      "Ġspeaking": 2576,
      "68": 2577,
      "Ġsize": 2578,
      "onald": 2579,
      "Ġshouldn": 2580,
      "Ġpopular": 2581,
      "Ġprofessional": 2582,
      "ills": 2583,
      "Ġdivor": 2584,
      "Ġcareful": 2585,
      "ĠVery": 2586,
      "Ġcharge": 2587,
      "Ġeduc": 2588,
      "Ġrespon": 2589,
      "78": 2590,
      "ror": 2591,
      "sw": 2592,
      "Ġbath": 2593,
      "Ġfield": 2594,
      "ids": 2595,
      "Ġdepartment": 2596,
      "Ġpoor": 2597,
      "excited": 2598,
      "ey": 2599,
      "Ġcertainly": 2600,
      "orth": 2601,
      "Ġwhite": 2602,
      "ĠTom": 2603,
      "Ġstation": 2604,
      "Ġleg": 2605,
      "Ġevent": 2606,
      "Ġkitchen": 2607,
      "rol": 2608,
      "imp": 2609,
      "Ġmanage": 2610,
      "Ġspending": 2611,
      "Ġcomplain": 2612,
      "Ġhungry": 2613,
      "Ġperform": 2614,
      "cd": 2615,
      "Ġmuse": 2616,
      "Ġfoods": 2617,
      "ĠJohn": 2618,
      "board": 2619,
      "Ġquickly": 2620,
      "Ġcent": 2621,
      "arch": 2622,
      "ĠTr": 2623,
      "unity": 2624,
      "cont": 2625,
      "Ġtele": 2626,
      "Ġsnow": 2627,
      "Ġcalifornia": 2628,
      "ien": 2629,
      "ator": 2630,
      "Ġben": 2631,
      "Ġcoun": 2632,
      "Ġcomfort": 2633,
      "ument": 2634,
      "Ġstudied": 2635,
      "Ġski": 2636,
      "lier": 2637,
      "Ġtaught": 2638,
      "Ġwine": 2639,
      "Ġexcept": 2640,
      "Ġplayer": 2641,
      "Ġ19": 2642,
      "Ġsyst": 2643,
      "iced": 2644,
      "Ġstory": 2645,
      "Ġleaving": 2646,
      "Ġthankful": 2647,
      "Ġslow": 2648,
      "Ġcompletely": 2649,
      "book": 2650,
      "Ġgrew": 2651,
      "Ġbuilding": 2652,
      "Ġdesign": 2653,
      "tle": 2654,
      "Ġansw": 2655,
      "Ġjazz": 2656,
      "iring": 2657,
      "Ġfinal": 2658,
      "Ġcas": 2659,
      "Ġneat": 2660,
      "Ġreport": 2661,
      "Ġpublic": 2662,
      "ysi": 2663,
      "ering": 2664,
      "Ġnet": 2665,
      "acking": 2666,
      "Ġroomm": 2667,
      "airs": 2668,
      "Ġcart": 2669,
      "Ġjo": 2670,
      "though": 2671,
      "Ġknows": 2672,
      "ommend": 2673,
      "Ġtatt": 2674,
      "Ġocc": 2675,
      "ĠAct": 2676,
      "Ġ18": 2677,
      "Ġapply": 2678,
      "Ġtex": 2679,
      "Ġcharac": 2680,
      "furious": 2681,
      "sy": 2682,
      "ancy": 2683,
      "ĠAfter": 2684,
      "Ġdam": 2685,
      "Ġlit": 2686,
      "ĠThose": 2687,
      "ĠPe": 2688,
      "Ġlead": 2689,
      "Ġflow": 2690,
      "ĠHaha": 2691,
      "cellent": 2692,
      "content": 2693,
      "fa": 2694,
      "rican": 2695,
      "Ġlottery": 2696,
      "Ġlonger": 2697,
      "Ġrecommend": 2698,
      "Ġforever": 2699,
      "Ġpuppy": 2700,
      "Ġge": 2701,
      "Ġbegin": 2702,
      "Ġrequ": 2703,
      "Ġhelping": 2704,
      "hew": 2705,
      "Ġenjoyed": 2706,
      "Ġcontact": 2707,
      "trusting": 2708,
      "You": 2709,
      "pared": 2710,
      "Ġgas": 2711,
      "Ġorgan": 2712,
      "Ġtelling": 2713,
      "Ġearlier": 2714,
      "Ġunfortunately": 2715,
      "Ġtattoo": 2716,
      "Ġtur": 2717,
      "uts": 2718,
      "ĠCome": 2719,
      "cri": 2720,
      "ross": 2721,
      "Ġbother": 2722,
      "Ġpat": 2723,
      "Ġshare": 2724,
      "Ġbrand": 2725,
      "prepared": 2726,
      "ged": 2727,
      "Ġtend": 2728,
      "Ġrese": 2729,
      "Ġmiles": 2730,
      "ule": 2731,
      "we": 2732,
      "ĠMary": 2733,
      "ĠRight": 2734,
      "Ġquestion": 2735,
      "Ġcry": 2736,
      "Ġstuck": 2737,
      "ume": 2738,
      "Ġappoint": 2739,
      "Ġbody": 2740,
      "Ġadvice": 2741,
      "iety": 2742,
      "Ġvegetables": 2743,
      "Ġengine": 2744,
      "ĠFriday": 2745,
      "Ġhistory": 2746,
      "haps": 2747,
      "Ġyout": 2748,
      "Ġfat": 2749,
      "Ġword": 2750,
      "Ġanywhere": 2751,
      "Ġpartic": 2752,
      "Ġenglish": 2753,
      "31": 2754,
      "ging": 2755,
      "Ġcond": 2756,
      "Ġcons": 2757,
      "When": 2758,
      "ems": 2759,
      "Ġchill": 2760,
      "Ġscience": 2761,
      "Ġwood": 2762,
      "Ġblood": 2763,
      "Ġadop": 2764,
      "Ġvet": 2765,
      "Ġwalked": 2766,
      "Ġeasier": 2767,
      "Ġcamp": 2768,
      "Ġmach": 2769,
      "Ġny": 2770,
      "Ġoce": 2771,
      "Ġlos": 2772,
      "Ġsucc": 2773,
      "Ġgrowing": 2774,
      "Ġinternet": 2775,
      "ĠActually": 2776,
      "56": 2777,
      "anna": 2778,
      "Ġla": 2779,
      "Ġwhatever": 2780,
      "Ġsomewhere": 2781,
      "Ġeverywhere": 2782,
      "90": 2783,
      "Ġahead": 2784,
      "Ġsoft": 2785,
      "Ġusing": 2786,
      "Ġdaughters": 2787,
      "Ġgraduate": 2788,
      "Ġvegetarian": 2789,
      "sad": 2790,
      "ined": 2791,
      "Ġbow": 2792,
      "Ġlow": 2793,
      "Ġgar": 2794,
      "angry": 2795,
      "Ġmissed": 2796,
      "Ġdepend": 2797,
      "Ġcoworker": 2798,
      "Ġsystem": 2799,
      "36": 2800,
      "Ġtouch": 2801,
      "Ġste": 2802,
      "und": 2803,
      "Ġmode": 2804,
      "Ġassi": 2805,
      "Ġgotten": 2806,
      "grateful": 2807,
      "Ġentire": 2808,
      "Ġpregnant": 2809,
      "nost": 2810,
      "Ġmatch": 2811,
      "Ġlab": 2812,
      "oop": 2813,
      "Ġamount": 2814,
      "Ġarri": 2815,
      "Ġseat": 2816,
      "Ġstudents": 2817,
      "Ġmedic": 2818,
      "Ġfantastic": 2819,
      "impressed": 2820,
      "Ġresearch": 2821,
      "75": 2822,
      "lonely": 2823,
      "Ġdie": 2824,
      "Ġval": 2825,
      "Ġpeace": 2826,
      "Ġtemp": 2827,
      "Ġproducts": 2828,
      "sides": 2829,
      "Ġdaily": 2830,
      "eed": 2831,
      "to": 2832,
      "Ġtax": 2833,
      "Ġ200": 2834,
      "Ġfinan": 2835,
      "Ġviol": 2836,
      "ĠChristmas": 2837,
      "Ġparticular": 2838,
      "gue": 2839,
      "Ġyard": 2840,
      "Ġstyle": 2841,
      "Ġcancer": 2842,
      "Ġhandle": 2843,
      "What": 2844,
      "Ġsuccess": 2845,
      "but": 2846,
      "Ġill": 2847,
      "velop": 2848,
      "Ġboat": 2849,
      "Ġhands": 2850,
      "Ġsalad": 2851,
      "Ġavail": 2852,
      "nostalgic": 2853,
      "hope": 2854,
      "Ġgra": 2855,
      "Ġstressful": 2856,
      "ric": 2857,
      "vi": 2858,
      "Ġet": 2859,
      "Ġdeliver": 2860,
      "Ġlibrary": 2861,
      "Ġyoutube": 2862,
      "Ġtom": 2863,
      "Ġinvest": 2864,
      "Ġstole": 2865,
      "Ġactiv": 2866,
      "Ġhuh": 2867,
      "caring": 2868,
      "mon": 2869,
      "ze": 2870,
      "Ġloud": 2871,
      "sib": 2872,
      "Ġwomen": 2873,
      "irm": 2874,
      "Ġfloor": 2875,
      "ale": 2876,
      "back": 2877,
      "Ġopt": 2878,
      "Ġchoose": 2879,
      "ago": 2880,
      "Ġbuying": 2881,
      "Ġhunting": 2882,
      "Ġinvol": 2883,
      "ergy": 2884,
      "annoyed": 2885,
      "Ġappointment": 2886,
      "Ġcongrats": 2887,
      "Ġrad": 2888,
      "Ġclos": 2889,
      "ashion": 2890,
      "Ġboard": 2891,
      "Ġeggs": 2892,
      "sure": 2893,
      "conf": 2894,
      "Ġneighborhood": 2895,
      "Ġshelter": 2896,
      "Ġocean": 2897,
      "ico": 2898,
      "Ġrom": 2899,
      "Ġkey": 2900,
      "Ġstaying": 2901,
      "Ġavailable": 2902,
      "ergic": 2903,
      "ency": 2904,
      "ondon": 2905,
      "454": 2906,
      "phone": 2907,
      "hopeful": 2908,
      "Ġmill": 2909,
      "Ġnep": 2910,
      "Ġcanada": 2911,
      "Ġallergic": 2912,
      "devastated": 2913,
      "Ġskin": 2914,
      "cdonald": 2915,
      "faithful": 2916,
      "ible": 2917,
      "Ġfoc": 2918,
      "Ġnope": 2919,
      "Ġstink": 2920,
      "apt": 2921,
      "Ġchanged": 2922,
      "Ġmotor": 2923,
      "Ġnephew": 2924,
      "siting": 2925,
      "Ġdeci": 2926,
      "Ġcongratulations": 2927,
      "Ġob": 2928,
      "icago": 2929,
      "Ġamer": 2930,
      "sel": 2931,
      "Ġsaying": 2932,
      "Ġchef": 2933,
      "Ġattention": 2934,
      "Ġtalent": 2935,
      "Ġflowers": 2936,
      "Ġach": 2937,
      "Ġcookies": 2938,
      "Ġtaste": 2939,
      "Ġsemester": 2940,
      "Ġbot": 2941,
      "omed": 2942,
      "Ġstorm": 2943,
      "ĠSee": 2944,
      "Ġath": 2945,
      "Ġscr": 2946,
      "Ġplanned": 2947,
      "Ġcross": 2948,
      "rified": 2949,
      "Ġloc": 2950,
      "ĠMan": 2951,
      "Ġfruit": 2952,
      "ĠCertainly": 2953,
      "Ġvegg": 2954,
      "Ġclear": 2955,
      "Ġhurrican": 2956,
      "Ġacross": 2957,
      "ĠSp": 2958,
      "Ġseven": 2959,
      "Ġclimb": 2960,
      "ĠPeople": 2961,
      "Ġdecision": 2962,
      "oid": 2963,
      "sent": 2964,
      "Ġfries": 2965,
      "Ġcoast": 2966,
      "Ġphysi": 2967,
      "Ġsunday": 2968,
      "Ġdropped": 2969,
      "Ġpiece": 2970,
      "orge": 2971,
      "vert": 2972,
      "Ġcontrol": 2973,
      "Ġdrawing": 2974,
      "Ġwarm": 2975,
      "Ġstraight": 2976,
      "sentimental": 2977,
      "Ġwanna": 2978,
      "Ġpig": 2979,
      "Ġexcellent": 2980,
      "Ġdeath": 2981,
      "que": 2982,
      "mber": 2983,
      "Ġrecip": 2984,
      "Ġmissing": 2985,
      "Ġcomputers": 2986,
      "Ġmetal": 2987,
      "Ġwalks": 2988,
      "79": 2989,
      "unt": 2990,
      "Ġwords": 2991,
      "Ġshirt": 2992,
      "Ġrich": 2993,
      "Ġsky": 2994,
      "Ġlanguages": 2995,
      "Ġresults": 2996,
      "126": 2997,
      "ses": 2998,
      "Ġbal": 2999,
      "ecause": 3000,
      "Ġsale": 3001,
      "Ġphotos": 3002,
      "Ġstories": 3003,
      "Ġmis": 3004,
      "terrified": 3005,
      "Ġretire": 3006,
      "Ġstrange": 3007,
      "Ġordered": 3008,
      "545": 3009,
      "emp": 3010,
      "Ġmcdonald": 3011,
      "Ġfashion": 3012,
      "Ġport": 3013,
      "Ġsol": 3014,
      "Ġgoodness": 3015,
      "acks": 3016,
      "ĠOr": 3017,
      "umped": 3018,
      "Ġlanguage": 3019,
      "Ġissues": 3020,
      "ĠMonday": 3021,
      "confident": 3022,
      "selves": 3023,
      "12": 3024,
      "ky": 3025,
      "Ġap": 3026,
      "Ġplane": 3027,
      "Ġvisiting": 3028,
      "gers": 3029,
      "Ġdent": 3030,
      "ays": 3031,
      "idence": 3032,
      "Ġgotta": 3033,
      "Ġdevelop": 3034,
      "Ġprov": 3035,
      "Ġadm": 3036,
      "209": 3037,
      "Ġparking": 3038,
      "Ġbroken": 3039,
      "Ġdoc": 3040,
      "Ġworkout": 3041,
      "Ġalthough": 3042,
      "Ġcomed": 3043,
      "Ġarmy": 3044,
      "Ġacting": 3045,
      "annel": 3046,
      "afraid": 3047,
      "gery": 3048,
      "ients": 3049,
      "icing": 3050,
      "urope": 3051,
      "arely": 3052,
      "embarrassed": 3053,
      "Ġvideos": 3054,
      "disgusted": 3055,
      "Ġsurgery": 3056,
      "ashamed": 3057,
      "Ġreserv": 3058,
      "Ġregular": 3059,
      "Ġeducation": 3060,
      "ache": 3061,
      "proud": 3062,
      "Ġshower": 3063,
      "ĠNothing": 3064,
      "ĠSomeone": 3065,
      "Ġsimple": 3066,
      "Ġfrustrating": 3067,
      "Ġmeant": 3068,
      "iction": 3069,
      "ushi": 3070,
      "ado": 3071,
      "Ġstick": 3072,
      "Ġappro": 3073,
      "Ġimpro": 3074,
      "Ġmedical": 3075,
      "Ġcommon": 3076,
      "Ġmarketing": 3077,
      "guilty": 3078,
      "Ġschedule": 3079,
      "jealous": 3080,
      "oe": 3081,
      "Ġur": 3082,
      "anish": 3083,
      "Ġthrew": 3084,
      "reen": 3085,
      "Ġintro": 3086,
      "ection": 3087,
      "Ġrealize": 3088,
      "disappointed": 3089,
      "iving": 3090,
      "od": 3091,
      "Ġwild": 3092,
      "Ġfactory": 3093,
      "Ġliter": 3094,
      "atoes": 3095,
      "Ġindeed": 3096,
      "Ġju": 3097,
      "Ġpray": 3098,
      "joyful": 3099,
      "Ġcontin": 3100,
      "175": 3101,
      "Ġclassic": 3102,
      "Ġinclud": 3103,
      "Ġspeed": 3104,
      "Ġgives": 3105,
      "Ġcouch": 3106,
      "Ġsqu": 3107,
      "Ġsushi": 3108,
      "Ġdeep": 3109,
      "Ġdanger": 3110,
      "Ġrecord": 3111,
      "Ġcru": 3112,
      "Ġpriv": 3113,
      "Ġsurfing": 3114,
      "Ġcheap": 3115,
      "Ġsomed": 3116,
      "Ġnoticed": 3117,
      "Ġspace": 3118,
      "uments": 3119,
      "Ġrepl": 3120,
      "vious": 3121,
      "Ġwre": 3122,
      "Ġpants": 3123,
      "pper": 3124,
      "Ġappl": 3125,
      "Ġgrandma": 3126,
      "Ġgiven": 3127,
      "Ġcomfortable": 3128,
      "ees": 3129,
      "Ġcri": 3130,
      "Ġorig": 3131,
      "ĠBecause": 3132,
      "Ġoffic": 3133,
      "Ġfeed": 3134,
      "Ġ25": 3135,
      "Ġwearing": 3136,
      "Ġflying": 3137,
      "Ġclassical": 3138,
      "47": 3139,
      "ered": 3140,
      "Ġpen": 3141,
      "Ġgold": 3142,
      "Ġhomework": 3143,
      "Ġletter": 3144,
      "Ġsleeping": 3145,
      "Ġlawy": 3146,
      "Ġreceived": 3147,
      "Ġsouth": 3148,
      "Ġsometime": 3149,
      "Ġkeeping": 3150,
      "Ġborrow": 3151,
      "Ġfilm": 3152,
      "Ġsomeday": 3153,
      "rehensive": 3154,
      "pping": 3155,
      "tern": 3156,
      "Ġbull": 3157,
      "Ġhorror": 3158,
      "Ġbon": 3159,
      "Ġaccomp": 3160,
      "Ġgiving": 3161,
      "attle": 3162,
      "ĠSmith": 3163,
      "244": 3164,
      "ether": 3165,
      "Ġchristmas": 3166,
      "ances": 3167,
      "Ġpleasure": 3168,
      "Ġenvir": 3169,
      "ino": 3170,
      "Ġdou": 3171,
      "Ġfi": 3172,
      "Ġlaz": 3173,
      "vers": 3174,
      "Ġvar": 3175,
      "assing": 3176,
      "Ġ40": 3177,
      "Ġhuman": 3178,
      "Ġopport": 3179,
      "jing": 3180,
      "nd": 3181,
      "Ġpair": 3182,
      "Ġitems": 3183,
      "ĠTake": 3184,
      "Ġchannel": 3185,
      "Ġkidding": 3186,
      "itten": 3187,
      "ips": 3188,
      "Ġmistake": 3189,
      "Ġsatis": 3190,
      "13": 3191,
      "Yes": 3192,
      "bit": 3193,
      "fic": 3194,
      "cel": 3195,
      "Ġprocess": 3196,
      "Ġraised": 3197,
      "Ġphotograph": 3198,
      "anxious": 3199,
      "ĠSaturday": 3200,
      "Ġnotice": 3201,
      "Ġsew": 3202,
      "ĠPer": 3203,
      "!!!": 3204,
      "Ġauth": 3205,
      "Ġtexas": 3206,
      "Ġplenty": 3207,
      "Ġstarts": 3208,
      "Ġtotal": 3209,
      "Ġsubject": 3210,
      "dred": 3211,
      "asy": 3212,
      "anticipating": 3213,
      "Ġshift": 3214,
      "ĠAww": 3215,
      "Ġstrugg": 3216,
      "Ġhundred": 3217,
      "ĠAmerican": 3218,
      "Ġmachine": 3219,
      "Ġorigin": 3220,
      "Ġenviron": 3221,
      "88": 3222,
      "son": 3223,
      "Ġfurn": 3224,
      "ĠFine": 3225,
      "apprehensive": 3226,
      "Ġpracticing": 3227,
      "We": 3228,
      "Ġfol": 3229,
      "Ġcous": 3230,
      "Ġgun": 3231,
      "Ġwhether": 3232,
      "Ġlosing": 3233,
      "Ġrace": 3234,
      "ears": 3235,
      "Ġtrash": 3236,
      "Ġways": 3237,
      "Ġnights": 3238,
      "Ġapple": 3239,
      "Ġpicture": 3240,
      "Ġhonestly": 3241,
      "bu": 3242,
      "Ġwast": 3243,
      "Ġmall": 3244,
      "oof": 3245,
      "icks": 3246,
      "Ġreward": 3247,
      "Ġshape": 3248,
      "ĠYork": 3249,
      "Ġfault": 3250,
      "Ġpays": 3251,
      "Ġaccountant": 3252,
      "Ġmainly": 3253,
      "Ġfocus": 3254,
      "Ġveggies": 3255,
      "Ġlazy": 3256,
      "reme": 3257,
      "Ġbored": 3258,
      "ĠMost": 3259,
      "ĠAb": 3260,
      "Ġtwice": 3261,
      "157": 3262,
      "ĠUS": 3263,
      "den": 3264,
      "anic": 3265,
      "Ġsoup": 3266,
      "Ġoper": 3267,
      "Ġchec": 3268,
      "ards": 3269,
      "Ġdecide": 3270,
      "Ġforeign": 3271,
      "lies": 3272,
      "Ġwoke": 3273,
      "Ġsen": 3274,
      "Ġcarry": 3275,
      "Ġputting": 3276,
      "Ġdesk": 3277,
      "flix": 3278,
      "Ġnovels": 3279,
      "Ġenvironment": 3280,
      "oph": 3281,
      "Ġwanting": 3282,
      "Ġagainst": 3283,
      "Ġcamer": 3284,
      "Ġselling": 3285,
      "Ġquestions": 3286,
      "Ġquality": 3287,
      "Ġaccomplish": 3288,
      "Ġyuan": 3289,
      "itary": 3290,
      "oted": 3291,
      "ises": 3292,
      "Ġplant": 3293,
      "ousand": 3294,
      "Ġthrones": 3295,
      "Ġgrandp": 3296,
      "Ġmilk": 3297,
      "Ġnormal": 3298,
      "iny": 3299,
      "Ġlay": 3300,
      "Ġreach": 3301,
      "Ġspot": 3302,
      "ĠNe": 3303,
      "Ġarm": 3304,
      "Ġsinger": 3305,
      "ium": 3306,
      "Ġcre": 3307,
      "Ġner": 3308,
      "icle": 3309,
      "ĠTell": 3310,
      "Ġstock": 3311,
      "Ġshame": 3312,
      "Ġalive": 3313,
      "Ġbecame": 3314,
      "105": 3315,
      "Ġsalary": 3316,
      "Ġinsp": 3317,
      "Ġpolit": 3318,
      "Ġmountains": 3319,
      "Ġhurricane": 3320,
      "go": 3321,
      "Ġther": 3322,
      "Ġcertain": 3323,
      "Ġchicago": 3324,
      "Ġplays": 3325,
      "Ġembarr": 3326,
      "Ġyellow": 3327,
      "Ġer": 3328,
      "upid": 3329,
      "Ġass": 3330,
      "Ġtrack": 3331,
      "Ġfinding": 3332,
      "Ġcontract": 3333,
      "233": 3334,
      "Ġtalked": 3335,
      "Ġstopped": 3336,
      "Ġcards": 3337,
      "Ġtacos": 3338,
      "Ġdangerous": 3339,
      "ana": 3340,
      "Ġthousand": 3341,
      "Ġnorth": 3342,
      "ety": 3343,
      "ĠSun": 3344,
      "Ġrob": 3345,
      "ther": 3346,
      "ilar": 3347,
      "Ġenergy": 3348,
      "Ġscare": 3349,
      "Ġblame": 3350,
      "Ġstayed": 3351,
      "Ġwondering": 3352,
      "Ġdeposit": 3353,
      "Ġzoo": 3354,
      "Ġissue": 3355,
      "Ġreservation": 3356,
      "ware": 3357,
      "wich": 3358,
      "Ġeight": 3359,
      "ism": 3360,
      "Ġsold": 3361,
      "Ġloan": 3362,
      "asty": 3363,
      "Ġcomic": 3364,
      "....": 3365,
      "Ġcouldnt": 3366,
      "ĠFirst": 3367,
      "Ġtypes": 3368,
      "ijing": 3369,
      "inc": 3370,
      "Ġfing": 3371,
      "ison": 3372,
      "Ġjam": 3373,
      "Ġrude": 3374,
      "ĠLO": 3375,
      "Ġdeserve": 3376,
      "Ġextreme": 3377,
      "Ġoffered": 3378,
      "Ġviolin": 3379,
      "Ġwake": 3380,
      "Ġdear": 3381,
      "Ġfirm": 3382,
      "Ġcab": 3383,
      "rimp": 3384,
      "Ġshall": 3385,
      "Ġexpected": 3386,
      "Ġindust": 3387,
      "Ġavoid": 3388,
      "Ġgeneral": 3389,
      "Ġbuddy": 3390,
      "Ġstinks": 3391,
      "Ġscratch": 3392,
      "Ġprivate": 3393,
      "Ġbreat": 3394,
      "Ġtor": 3395,
      "Ġheavy": 3396,
      "Ġrush": 3397,
      "ĠMiss": 3398,
      "Ġcompan": 3399,
      "ĠBeijing": 3400,
      "Ġwallet": 3401,
      "Ġspring": 3402,
      "Ġmotorcy": 3403,
      "Ġgh": 3404,
      "Ġnails": 3405,
      "ilt": 3406,
      "Ġprepare": 3407,
      "Ġsnake": 3408,
      "Ġroommate": 3409,
      "light": 3410,
      "Ġhappening": 3411,
      "Ġdrinks": 3412,
      "ohol": 3413,
      "Ġanswer": 3414,
      "89": 3415,
      "Yeah": 3416,
      "Ġtho": 3417,
      "read": 3418,
      "Ġcir": 3419,
      "Ġlets": 3420,
      "Ġsuck": 3421,
      "ĠCool": 3422,
      "Ġvoice": 3423,
      "Ġgrown": 3424,
      "Ġcountries": 3425,
      "Ġskills": 3426,
      "Ġmilitary": 3427,
      "Ġaccidentally": 3428,
      "Ġpackage": 3429,
      "Ġbummer": 3430,
      "Ġcharacter": 3431,
      "Ġradio": 3432,
      "cohol": 3433,
      "Ġshrimp": 3434,
      "Ġrand": 3435,
      "ulous": 3436,
      "ĠLike": 3437,
      "Ġbless": 3438,
      "Ġbread": 3439,
      "Ġsongs": 3440,
      "Ġsandwich": 3441,
      "Ġbathroom": 3442,
      "Ġlawyer": 3443,
      "Ġide": 3444,
      "Ġthird": 3445,
      "vell": 3446,
      "Ġoil": 3447,
      "lex": 3448,
      "haha": 3449,
      "Ġcheated": 3450,
      "ivers": 3451,
      "Ġdesig": 3452,
      "lad": 3453,
      "Ġanx": 3454,
      "Ġstressed": 3455,
      "Ġgosh": 3456,
      "Ġconn": 3457,
      "Ġ16": 3458,
      "Ġfixed": 3459,
      "Ġapolog": 3460,
      "Ġmix": 3461,
      "Ġdude": 3462,
      "Ġnatur": 3463,
      "Ġstupid": 3464,
      "urity": 3465,
      "Ġknown": 3466,
      "Ġconven": 3467,
      "Ġexplain": 3468,
      "Ġwinning": 3469,
      "Ġglasses": 3470,
      "Ġloss": 3471,
      "Ġdoubt": 3472,
      "ĠAbout": 3473,
      "ased": 3474,
      "Ġgoal": 3475,
      "Ġworker": 3476,
      "Ġallerg": 3477,
      "Ġanime": 3478,
      "ified": 3479,
      "Ġdoctors": 3480,
      "Ġugh": 3481,
      "Ġwriter": 3482,
      "Ġsimilar": 3483,
      "Ġcustomer": 3484,
      "iliar": 3485,
      "Ġanxiety": 3486,
      "Ġallergies": 3487,
      "hh": 3488,
      "vent": 3489,
      "Ġcult": 3490,
      "Ġpounds": 3491,
      "Ġequ": 3492,
      "Ġjour": 3493,
      "une": 3494,
      "Ġshoot": 3495,
      "ĠYep": 3496,
      "Ġwaitress": 3497,
      "Ġactive": 3498,
      "Ġproper": 3499,
      "Ġbenef": 3500,
      "empl": 3501,
      "77": 3502,
      "Ġsight": 3503,
      "Ġmood": 3504,
      "Ġdating": 3505,
      "Ġcho": 3506,
      "Ġtrad": 3507,
      "apers": 3508,
      "Ġnursing": 3509,
      "ĠEveryone": 3510,
      "Ġmexico": 3511,
      "Ġnetflix": 3512,
      "ett": 3513,
      "Ġest": 3514,
      "Ġalcohol": 3515,
      "urs": 3516,
      "Ġnose": 3517,
      "earch": 3518,
      "Ġawh": 3519,
      "Ġtwenty": 3520,
      "Ġcrash": 3521,
      "Ġpurch": 3522,
      "Ġmexican": 3523,
      "Ġrandom": 3524,
      "??": 3525,
      "ique": 3526,
      "iture": 3527,
      "oming": 3528,
      "Ġground": 3529,
      "Ġhous": 3530,
      "Ġbright": 3531,
      "uth": 3532,
      "Ġjer": 3533,
      "Ġshy": 3534,
      "illy": 3535,
      "ĠMom": 3536,
      "Ġorange": 3537,
      "Ġvan": 3538,
      "Ġhimself": 3539,
      "Ġbarb": 3540,
      "Ġseemed": 3541,
      "Ġdiscount": 3542,
      "Ġoccas": 3543,
      "Ġfinancial": 3544,
      "vision": 3545,
      "Ġver": 3546,
      "Ġgrill": 3547,
      "Ġgoods": 3548,
      "Ġrelig": 3549,
      "Ġattract": 3550,
      "Ġchecked": 3551,
      "Ġseries": 3552,
      "Ġnewsp": 3553,
      "gas": 3554,
      "lie": 3555,
      "erman": 3556,
      "sia": 3557,
      "Ġfear": 3558,
      "Ġstom": 3559,
      "Ġsons": 3560,
      "Ġeasily": 3561,
      "Ġdiscus": 3562,
      "ĠEverything": 3563,
      "Ġsmoking": 3564,
      "Ġdishes": 3565,
      "Ġmillion": 3566,
      "Ġimprove": 3567,
      "Ġawhile": 3568,
      "how": 3569,
      "Ġmention": 3570,
      "Ġlim": 3571,
      "Ġsteal": 3572,
      "Ġkar": 3573,
      "Ġscen": 3574,
      "istic": 3575,
      "uction": 3576,
      "Ġinvolved": 3577,
      "Ġghost": 3578,
      "Ġdouble": 3579,
      "Ġnasty": 3580,
      "Ġspid": 3581,
      "ĠLuck": 3582,
      "Ġtext": 3583,
      "Ġincred": 3584,
      "Ġinvited": 3585,
      "Ġcolors": 3586,
      "Ġetc": 3587,
      "Ġfurniture": 3588,
      "ĠSunday": 3589,
      "ler": 3590,
      "rob": 3591,
      "Ġbac": 3592,
      "Ġcrow": 3593,
      "omy": 3594,
      "Ġwash": 3595,
      "Ġweb": 3596,
      "ĠTw": 3597,
      "Ġ14": 3598,
      "Ġteen": 3599,
      "Ġbiggest": 3600,
      "Ġcheer": 3601,
      "Ġsupplies": 3602,
      "Ġcrush": 3603,
      "Ġturns": 3604,
      "Ġeventually": 3605,
      "211": 3606,
      "74": 3607,
      "ires": 3608,
      "sc": 3609,
      "antic": 3610,
      "Ġje": 3611,
      "Ġkick": 3612,
      "Ġfamiliar": 3613,
      "Ġrealized": 3614,
      "Ġpasta": 3615,
      "Ġballet": 3616,
      "Ġrespect": 3617,
      "Ġcruise": 3618,
      "Ġapplied": 3619,
      "Ġtree": 3620,
      "Ġyo": 3621,
      "Ġodd": 3622,
      "itude": 3623,
      "Ġbeef": 3624,
      "Ġgolf": 3625,
      "ief": 3626,
      "Ġblog": 3627,
      "Ġmoms": 3628,
      "Ġadvent": 3629,
      "Ġregist": 3630,
      "He": 3631,
      "ony": 3632,
      "Ġpic": 3633,
      "ites": 3634,
      "Ġlie": 3635,
      "allen": 3636,
      "Ġnoise": 3637,
      "Ġmarath": 3638,
      "ĠAnything": 3639,
      "ĠAwesome": 3640,
      "Ġmedicine": 3641,
      "Ġembarrassing": 3642,
      "da": 3643,
      "asc": 3644,
      "Ġmater": 3645,
      "Ġmech": 3646,
      "Ġview": 3647,
      "ĠEven": 3648,
      "Ġsecurity": 3649,
      "Ġgrades": 3650,
      "Ġtrees": 3651,
      "Ġdepends": 3652,
      "Ġachieve": 3653,
      "Ġintrod": 3654,
      "84": 3655,
      "ody": 3656,
      "ron": 3657,
      "Ġthirty": 3658,
      "Ġhon": 3659,
      "Ġford": 3660,
      "riage": 3661,
      "Ġneg": 3662,
      "Ġtravell": 3663,
      "Ġdrunk": 3664,
      "Ġsmoke": 3665,
      "Ġadult": 3666,
      "Ġdifference": 3667,
      "Ġconcerts": 3668,
      "Ġtattoos": 3669,
      "Ġadopted": 3670,
      "Ġauthor": 3671,
      "Ġindustry": 3672,
      "Ġstomach": 3673,
      "father": 3674,
      "ĠZ": 3675,
      "Ġhallow": 3676,
      "ides": 3677,
      "Ġoldest": 3678,
      "ĠGr": 3679,
      "Ġskate": 3680,
      "like": 3681,
      "Ġsugar": 3682,
      "Ġfailed": 3683,
      "69": 3684,
      "uch": 3685,
      "vin": 3686,
      "Ġyoun": 3687,
      "Ġnational": 3688,
      "Ġwheel": 3689,
      "Ġlic": 3690,
      "ĠWait": 3691,
      "Ġwithin": 3692,
      "Ġchallen": 3693,
      "Ġunless": 3694,
      "Ġcarp": 3695,
      "Ġmakeup": 3696,
      "Ġhasn": 3697,
      "Ġpicked": 3698,
      "Ġmotiv": 3699,
      "fying": 3700,
      "ug": 3701,
      "Ġtill": 3702,
      "Ġjack": 3703,
      "Ġprot": 3704,
      "arten": 3705,
      "ĠGet": 3706,
      "Ġcorner": 3707,
      "Ġfreak": 3708,
      "Ġtruly": 3709,
      "aptop": 3710,
      "Ġhalloween": 3711,
      "14": 3712,
      "co": 3713,
      "eries": 3714,
      "Ġsearch": 3715,
      "onde": 3716,
      "itions": 3717,
      "lect": 3718,
      "ĠWith": 3719,
      "eech": 3720,
      "illed": 3721,
      "269": 3722,
      "sident": 3723,
      "Ġlibrarian": 3724,
      "Ġdragons": 3725,
      "Ġmodel": 3726,
      "Ġmcdonalds": 3727,
      "mark": 3728,
      "wise": 3729,
      "Ġtheater": 3730,
      "Ġrate": 3731,
      "ĠMY": 3732,
      "ĠNever": 3733,
      "Ġharder": 3734,
      "Ġblonde": 3735,
      "Ġresc": 3736,
      "Ġmedia": 3737,
      "296": 3738,
      "Ġunfortunate": 3739,
      "Ġcartoon": 3740,
      "sych": 3741,
      "Ġcousin": 3742,
      "Ġyoungest": 3743,
      "Ġfer": 3744,
      "Ġlaptop": 3745,
      "Ġobs": 3746,
      "Ġfort": 3747,
      "Ġjump": 3748,
      "vern": 3749,
      "Ġwashing": 3750,
      "Ġfaith": 3751,
      "ĠExactly": 3752,
      "Ġtransfer": 3753,
      "pected": 3754,
      "Ġeffort": 3755,
      "Ġdivorce": 3756,
      "322": 3757,
      "94": 3758,
      "ikes": 3759,
      "Ġaud": 3760,
      "Ġbarely": 3761,
      "Ġfried": 3762,
      "ĠWor": 3763,
      "Ġalb": 3764,
      "Ġapplic": 3765,
      "Ġlevel": 3766,
      "Ġperio": 3767,
      "104": 3768,
      "Ġconcer": 3769,
      "Ġmemory": 3770,
      "Ġdancer": 3771,
      "Ġsenior": 3772,
      "Ġcirc": 3773,
      "ursday": 3774,
      "Ġbacon": 3775,
      "How": 3776,
      "Ġyep": 3777,
      "ounting": 3778,
      "ĠBob": 3779,
      "igan": 3780,
      "Ġsubway": 3781,
      "aff": 3782,
      "Ġfur": 3783,
      "Ġheight": 3784,
      "eces": 3785,
      "ĠCongrats": 3786,
      "Ġarr": 3787,
      "Ġfema": 3788,
      "ĠWelcome": 3789,
      "road": 3790,
      "Ġstores": 3791,
      "ival": 3792,
      "333": 3793,
      "Ġcorrect": 3794,
      "ĠAmerica": 3795,
      "Ġmagaz": 3796,
      "Ġholidays": 3797,
      "Ġtrucks": 3798,
      "Ġeffect": 3799,
      "Ġfemale": 3800,
      "eren": 3801,
      "Ġpi": 3802,
      "Ġnon": 3803,
      "Ġbell": 3804,
      "Ġbesides": 3805,
      "Ġlock": 3806,
      "Ġspeech": 3807,
      "Ġswitch": 3808,
      "Ġadvert": 3809,
      "Ġsunny": 3810,
      "ĠGod": 3811,
      "Ġaunt": 3812,
      "ination": 3813,
      "Ġbeha": 3814,
      "Ġrac": 3815,
      "Ġwhenever": 3816,
      "Ġusa": 3817,
      "ĠBr": 3818,
      "Ġhelpful": 3819,
      "Ġscore": 3820,
      "Ġopin": 3821,
      "Ġcelebrate": 3822,
      "Ġbonus": 3823,
      "Ġhmm": 3824,
      "Ġmort": 3825,
      "Ġbob": 3826,
      "Ġjunk": 3827,
      "ĠSir": 3828,
      "ender": 3829,
      "Ġexha": 3830,
      "Ġuncle": 3831,
      "Ġschol": 3832,
      "Ġparts": 3833,
      "Ġmarriage": 3834,
      "Ġgardening": 3835,
      "Ġraining": 3836,
      "Ġperformance": 3837,
      "Ġathlet": 3838,
      "Ġofficer": 3839,
      "Ġconvenient": 3840,
      "?!": 3841,
      "vy": 3842,
      "Ġiphone": 3843,
      "Ġmich": 3844,
      "Ġcakes": 3845,
      "Ġnob": 3846,
      "Ġnah": 3847,
      "Ġom": 3848,
      "arm": 3849,
      "ley": 3850,
      "Ġstates": 3851,
      "Ġshot": 3852,
      "Ġnote": 3853,
      "Ġring": 3854,
      "ilities": 3855,
      "essert": 3856,
      "Ġdem": 3857,
      "Ġschools": 3858,
      "ured": 3859,
      "Ġbabies": 3860,
      "Ġempty": 3861,
      "ustral": 3862,
      "Ġiron": 3863,
      "Ġkilled": 3864,
      "Ġenvious": 3865,
      "Ġtemper": 3866,
      "Ġoccasion": 3867,
      "Ġhom": 3868,
      "Ġmile": 3869,
      "Ġdessert": 3870,
      "Ġrout": 3871,
      "Ġcomics": 3872,
      "Ġhardly": 3873,
      "Ġfeelings": 3874,
      "Ġpromised": 3875,
      "Ġhurts": 3876,
      "Ġpublish": 3877,
      "Ġopportunity": 3878,
      "Ġtherap": 3879,
      "Ġdry": 3880,
      "ĠIT": 3881,
      "Ġfiction": 3882,
      "Ġliz": 3883,
      "Ġmeals": 3884,
      "ĠDad": 3885,
      "Ġspo": 3886,
      "Ġrecover": 3887,
      "115": 3888,
      "Ġattack": 3889,
      "arship": 3890,
      "what": 3891,
      "Ġheaded": 3892,
      "Ġinvite": 3893,
      "273": 3894,
      "dden": 3895,
      "Ġreminds": 3896,
      "Ġmuseum": 3897,
      "Ġamerican": 3898,
      "Ġchecking": 3899,
      "gia": 3900,
      "oom": 3901,
      "Ġtun": 3902,
      "Ġbeard": 3903,
      "Ġjohn": 3904,
      "Ġfave": 3905,
      "Ġdestr": 3906,
      "Ġtrade": 3907,
      "Ġpersonally": 3908,
      "Ġdecor": 3909,
      "Ġhunt": 3910,
      "Ġpromise": 3911,
      "Ġ80": 3912,
      "ĠToday": 3913,
      "Ġemotion": 3914,
      "Ġemployees": 3915,
      "Ġtelevision": 3916,
      "Ġrewarding": 3917,
      "Ġextremely": 3918,
      "food": 3919,
      "asing": 3920,
      "Ġlift": 3921,
      "Ġemer": 3922,
      "idge": 3923,
      "Ġsudden": 3924,
      "Ġasleep": 3925,
      "Ġplus": 3926,
      "Ġfriday": 3927,
      "iling": 3928,
      "abama": 3929,
      "Ġ11": 3930,
      "itted": 3931,
      "Ġblind": 3932,
      "Ġbigger": 3933,
      "Ġrelate": 3934,
      "Ġcraft": 3935,
      "Ġbasically": 3936,
      "Ġdollar": 3937,
      "Ġsmooth": 3938,
      "clock": 3939,
      "Ġallowed": 3940,
      "ĠLOL": 3941,
      "Ġtiny": 3942,
      "Ġfancy": 3943,
      "Ġlied": 3944,
      "child": 3945,
      "Ġround": 3946,
      "Ġdebt": 3947,
      "ĠCl": 3948,
      "Ġapples": 3949,
      "Ġveter": 3950,
      "Ġhurry": 3951,
      "262": 3952,
      "Ġcommun": 3953,
      "Ġlessons": 3954,
      "Ġreplace": 3955,
      "Ġmotorcycle": 3956,
      "Ġscholarship": 3957,
      "Ġfif": 3958,
      "Ġhowever": 3959,
      "Ġgovern": 3960,
      "ĠMar": 3961,
      "Ġspicy": 3962,
      "Ġunex": 3963,
      "Ġearth": 3964,
      "Ġdeser": 3965,
      "Ġbedroom": 3966,
      "Ġincre": 3967,
      "Ġdepressed": 3968,
      "Ġexample": 3969,
      "uesday": 3970,
      "Ġdelivery": 3971,
      "Ġdivorced": 3972,
      "66": 3973,
      "night": 3974,
      "rup": 3975,
      "ury": 3976,
      "othing": 3977,
      "eter": 3978,
      "Ġplants": 3979,
      "ĠComp": 3980,
      "Ġbrings": 3981,
      "Ġsauce": 3982,
      "Ġdisgust": 3983,
      "Ġannivers": 3984,
      "Ġrepair": 3985,
      "Ġspecific": 3986,
      "Ġcommunity": 3987,
      "Ġmagic": 3988,
      "Ġaccepted": 3989,
      "ĠPerhaps": 3990,
      "ials": 3991,
      "oul": 3992,
      "Ġhoney": 3993,
      "Ġdut": 3994,
      "Ġtooth": 3995,
      "ops": 3996,
      "oses": 3997,
      "Ġkinderg": 3998,
      "Ġrole": 3999,
      "Ġtwin": 4000,
      "ĠEs": 4001,
      "Ġblast": 4002,
      "Ġdecent": 4003,
      "Ġopened": 4004,
      "Ġfacebook": 4005,
      "Ġmanagement": 4006,
      "Ġcondition": 4007,
      "Ġsoftware": 4008,
      "Ġcrime": 4009,
      "bed": 4010,
      "mo": 4011,
      "ows": 4012,
      "eth": 4013,
      "Ġspa": 4014,
      "Ġspir": 4015,
      "ives": 4016,
      "Ġshowed": 4017,
      "Ġcourses": 4018,
      "Ġsnakes": 4019,
      "Ġexperien": 4020,
      "Ġcalm": 4021,
      "Ġirrit": 4022,
      "Ġdistance": 4023,
      "Ġelectric": 4024,
      "Ġseafood": 4025,
      "Ġcompanies": 4026,
      "Ġhouses": 4027,
      "Ġperiod": 4028,
      "Ġanniversary": 4029,
      "gle": 4030,
      "house": 4031,
      "Ġreview": 4032,
      "endo": 4033,
      "Ġfriendly": 4034,
      "Ġunempl": 4035,
      "Ġtruth": 4036,
      "Ġbecoming": 4037,
      "Ġ13": 4038,
      "Ġmary": 4039,
      "Ġmarry": 4040,
      "Ġ300": 4041,
      "Ġcoup": 4042,
      "225": 4043,
      "Ġmale": 4044,
      "Ġjokes": 4045,
      "cript": 4046,
      "Ġactivities": 4047,
      "Ġnatural": 4048,
      "Ġnewspaper": 4049,
      "Ġunexpected": 4050,
      "120": 4051,
      "639": 4052,
      "Ġwo": 4053,
      "Ġsil": 4054,
      "Ġfired": 4055,
      "Ġtoys": 4056,
      "Ġpsych": 4057,
      "Ġow": 4058,
      "Ġship": 4059,
      "ĠYesterday": 4060,
      "Ġrus": 4061,
      "iest": 4062,
      "Ġafterwards": 4063,
      "Ġrooms": 4064,
      "Ġcourt": 4065,
      "Ġbeauty": 4066,
      "196": 4067,
      "Ġpassport": 4068,
      "Ġexams": 4069,
      "Ġdirection": 4070,
      "Ġcreep": 4071,
      "nal": 4072,
      "Ġweren": 4073,
      "Ġdy": 4074,
      "Ġlas": 4075,
      "Ġpush": 4076,
      "ĠBl": 4077,
      "Ġcalls": 4078,
      "Ġburger": 4079,
      "Ġcollection": 4080,
      "Ġcompetition": 4081,
      "Ġrug": 4082,
      "Ġskiing": 4083,
      "Ġmichigan": 4084,
      "bling": 4085,
      "gth": 4086,
      "ari": 4087,
      "lymp": 4088,
      "Ġspell": 4089,
      "Ġthemselves": 4090,
      "Ġguest": 4091,
      "ĠGlad": 4092,
      "Ġparties": 4093,
      "Ġdisney": 4094,
      "Ġaccounting": 4095,
      "Ġgrandchild": 4096,
      "Ġbabysit": 4097,
      "Ġjuice": 4098,
      "Ġphotography": 4099,
      "220": 4100,
      "Ġpoo": 4101,
      "Ġinj": 4102,
      "change": 4103,
      "Ġjud": 4104,
      "adays": 4105,
      "Ġking": 4106,
      "Ġlover": 4107,
      "Ġcoach": 4108,
      "Ġdisapp": 4109,
      "Ġsurv": 4110,
      "issed": 4111,
      "110": 4112,
      "Ġchatting": 4113,
      "Ġroller": 4114,
      "medi": 4115,
      "Ġyummy": 4116,
      "Ġmuseums": 4117,
      "Ġgrab": 4118,
      "Ġromantic": 4119,
      "Ġcamera": 4120,
      "etti": 4121,
      "Well": 4122,
      "ebr": 4123,
      "nes": 4124,
      "ued": 4125,
      "Ġcy": 4126,
      "ution": 4127,
      "Ġneither": 4128,
      "aced": 4129,
      "Ġcand": 4130,
      "Ġsaved": 4131,
      "Ġluckily": 4132,
      "ĠUh": 4133,
      "250": 4134,
      "avid": 4135,
      "Ġcoworkers": 4136,
      "Ġdamage": 4137,
      "Ġlicense": 4138,
      "Ġsilly": 4139,
      "Ġep": 4140,
      "Ġeurope": 4141,
      "ĠDis": 4142,
      "ĠLol": 4143,
      "Ġdrove": 4144,
      "intendo": 4145,
      "Ġinstrument": 4146,
      "Ġnormally": 4147,
      "Ġtaco": 4148,
      "Ġpigs": 4149,
      "bur": 4150,
      "Ġapart": 4151,
      "Ġsus": 4152,
      "Ġfed": 4153,
      "Ġcell": 4154,
      "ota": 4155,
      "Ġmember": 4156,
      "Ġnecess": 4157,
      "Ġbutter": 4158,
      "ĠLi": 4159,
      "Ġactor": 4160,
      "arents": 4161,
      "Ġsadly": 4162,
      "Ġvisited": 4163,
      "Ġairport": 4164,
      "Ġcovered": 4165,
      "Ġpulled": 4166,
      "Ġcasino": 4167,
      "Ġdentist": 4168,
      "Ġideas": 4169,
      "Ġdesigner": 4170,
      "zz": 4171,
      "inary": 4172,
      "Ġmouth": 4173,
      "reed": 4174,
      "ato": 4175,
      "Ġburn": 4176,
      "Ġgoo": 4177,
      "Ġrobb": 4178,
      "Ġalabama": 4179,
      "ĠMake": 4180,
      "ules": 4181,
      "asters": 4182,
      "Ġenc": 4183,
      "Ġclown": 4184,
      "Ġtrail": 4185,
      "izing": 4186,
      "Ġaction": 4187,
      "ians": 4188,
      "Ġveh": 4189,
      "Ġthankfully": 4190,
      "Ġconfidence": 4191,
      "bye": 4192,
      "Ġseriously": 4193,
      "Ġreturned": 4194,
      "They": 4195,
      "Ġresponsib": 4196,
      "ĠNext": 4197,
      "Ġopinion": 4198,
      "ĠEspecially": 4199,
      "249": 4200,
      "Ġthrill": 4201,
      "Ġsam": 4202,
      "Ġmult": 4203,
      "Ġlondon": 4204,
      "Ġparr": 4205,
      "Ġnerve": 4206,
      "ghetti": 4207,
      "acy": 4208,
      "ĠDe": 4209,
      "essor": 4210,
      "Ġ17": 4211,
      "Ġbadly": 4212,
      "ĠJack": 4213,
      "Ġbreed": 4214,
      "Ġfilms": 4215,
      "Ġlights": 4216,
      "Ġpotatoes": 4217,
      "ustralia": 4218,
      "Ġdisgusting": 4219,
      "245": 4220,
      "ges": 4221,
      "eral": 4222,
      "stery": 4223,
      "Ġsan": 4224,
      "Ġsaturday": 4225,
      "atic": 4226,
      "Ġnine": 4227,
      "Ġsoda": 4228,
      "Ġloving": 4229,
      "Ġcancel": 4230,
      "rap": 4231,
      "Ġpepper": 4232,
      "ĠJapan": 4233,
      "Ġpayment": 4234,
      "Ġhigher": 4235,
      "Ġcooked": 4236,
      "Ġimmedi": 4237,
      "Ġstranger": 4238,
      "Ġrestaurants": 4239,
      "Ġgraduation": 4240,
      "Ġpressure": 4241,
      "Ġbaked": 4242,
      "Ġcounter": 4243,
      "Ġclimbing": 4244,
      "Ġemerg": 4245,
      "Some": 4246,
      "bly": 4247,
      "Ġecon": 4248,
      "mentary": 4249,
      "Ġattitude": 4250,
      "itional": 4251,
      "Ġ90": 4252,
      "Ġfavour": 4253,
      "Ġprovide": 4254,
      "ĠTwo": 4255,
      "Ġgovernment": 4256,
      "Ġspaghetti": 4257,
      "cent": 4258,
      "tte": 4259,
      "stantly": 4260,
      "Ġdirty": 4261,
      "Ġcoo": 4262,
      "Ġnone": 4263,
      "Ġham": 4264,
      "Ġloy": 4265,
      "ĠSte": 4266,
      "Ġroses": 4267,
      "rage": 4268,
      "iece": 4269,
      "Ġclients": 4270,
      "Ġoverse": 4271,
      "Ġrelative": 4272,
      "Ġchees": 4273,
      "Ġperhaps": 4274,
      "onda": 4275,
      "Ġaddress": 4276,
      "Ġdreams": 4277,
      "Ġcopy": 4278,
      "Ġwaste": 4279,
      "Ġapologize": 4280,
      "Ġwebsit": 4281,
      "dra": 4282,
      "ĠQ": 4283,
      "Ġtoy": 4284,
      "Ġtodd": 4285,
      "Ġtowards": 4286,
      "Ġpit": 4287,
      "omb": 4288,
      "ĠThese": 4289,
      "ural": 4290,
      "ĠAm": 4291,
      "Ġarch": 4292,
      "ĠGu": 4293,
      "Ġleather": 4294,
      "Ġlatest": 4295,
      "Ġserve": 4296,
      "Ġengaged": 4297,
      "Ġpleased": 4298,
      "Ġfantasy": 4299,
      "Ġwoods": 4300,
      "Ġcrowd": 4301,
      "Ġgrandchildren": 4302,
      "Ġloyal": 4303,
      "53": 4304,
      "But": 4305,
      "itor": 4306,
      "oooo": 4307,
      "ission": 4308,
      "Ġsoci": 4309,
      "ung": 4310,
      "Ġchamp": 4311,
      "ĠMany": 4312,
      "Ġthinks": 4313,
      "ĠNope": 4314,
      "Ġgrass": 4315,
      "Ġscient": 4316,
      "Ġquar": 4317,
      "Ġwont": 4318,
      "ĠPl": 4319,
      "Ġadore": 4320,
      "Ġpresentation": 4321,
      "ĠLuckily": 4322,
      "Ġtravelling": 4323,
      "mart": 4324,
      "ining": 4325,
      "anta": 4326,
      "Ġcro": 4327,
      "Ġheat": 4328,
      "Ġris": 4329,
      "ected": 4330,
      "Ġ21": 4331,
      "Ġteachers": 4332,
      "Ġowner": 4333,
      "Ġcontest": 4334,
      "ĠIntern": 4335,
      "Ġfaster": 4336,
      "ĠKeep": 4337,
      "Ġregret": 4338,
      "Ġinstruct": 4339,
      "Ġcustomers": 4340,
      "Ġsuccessful": 4341,
      "Ġsatisfied": 4342,
      "93": 4343,
      "So": 4344,
      "ship": 4345,
      "Ġdig": 4346,
      "Ġload": 4347,
      "Ġrare": 4348,
      "Ġknit": 4349,
      "Ġfavorites": 4350,
      "Ġsmash": 4351,
      "Ġfla": 4352,
      "Ġpoet": 4353,
      "Ġbird": 4354,
      "Ġesc": 4355,
      "Ġmadam": 4356,
      "Ġ60": 4357,
      "bsolutely": 4358,
      "Ġcreate": 4359,
      "Ġstraw": 4360,
      "Ġlocated": 4361,
      "Ġapplication": 4362,
      "73": 4363,
      "rop": 4364,
      "ask": 4365,
      "ĠID": 4366,
      "Ġnuts": 4367,
      "ĠSup": 4368,
      "ĠHmm": 4369,
      "ĠAr": 4370,
      "Ġexchange": 4371,
      "Ġspanish": 4372,
      "Ġdel": 4373,
      "ĠLondon": 4374,
      "action": 4375,
      "oston": 4376,
      "ĠRI": 4377,
      "ĠUgh": 4378,
      "Ġtrusted": 4379,
      "Ġparks": 4380,
      "Ġcheaper": 4381,
      "Ġphysical": 4382,
      "Ġkindergarten": 4383,
      "gy": 4384,
      "iam": 4385,
      "Ġmac": 4386,
      "Ġdang": 4387,
      "Ġgum": 4388,
      "usted": 4389,
      "Ġstamp": 4390,
      "Ġasp": 4391,
      "ĠAbsolutely": 4392,
      "Ġcomb": 4393,
      "Ġnowadays": 4394,
      "olen": 4395,
      "ĠGot": 4396,
      "ĠDidn": 4397,
      "Ġretail": 4398,
      "Ġsweat": 4399,
      "Ġbasement": 4400,
      "Ġrefund": 4401,
      "ĠOnly": 4402,
      "Ġcontinue": 4403,
      "Ġflavor": 4404,
      "355": 4405,
      "83": 4406,
      "Ġsli": 4407,
      "Ġden": 4408,
      "Ġfrank": 4409,
      "Ġclock": 4410,
      "ĠJim": 4411,
      "ertific": 4412,
      "Ġboots": 4413,
      "Ġfinishing": 4414,
      "Ġmessage": 4415,
      "Ġconsidered": 4416,
      "aii": 4417,
      "Ġresponsible": 4418,
      "Ġcomedy": 4419,
      "Ġtorn": 4420,
      "Ġdiscuss": 4421,
      "robably": 4422,
      "Ġoverseas": 4423,
      "no": 4424,
      "wor": 4425,
      "Ġtar": 4426,
      "Ġdar": 4427,
      "Ġlad": 4428,
      "Ġwilling": 4429,
      "Ġusual": 4430,
      "ĠFlor": 4431,
      "Ġruns": 4432,
      "Ġtrips": 4433,
      "Ġpromoted": 4434,
      "Ġelementary": 4435,
      "Ġreminded": 4436,
      "Ġbeginning": 4437,
      "Ġassistant": 4438,
      "Ġgolden": 4439,
      "Ġfingers": 4440,
      "Ġduty": 4441,
      "Ġign": 4442,
      "ĠMark": 4443,
      "ĠAcc": 4444,
      "Ġspilled": 4445,
      "ipt": 4446,
      "Ġcheat": 4447,
      "Ġcheating": 4448,
      "Ġgrandfather": 4449,
      "Ġnearly": 4450,
      "Ġnearby": 4451,
      "Ġinstruments": 4452,
      "Ġrecipes": 4453,
      "ĠRIB": 4454,
      "por": 4455,
      "Ġhide": 4456,
      "sian": 4457,
      "Ġcu": 4458,
      "ĠHis": 4459,
      "Ġhomeless": 4460,
      "Ġseattle": 4461,
      "ĠFrench": 4462,
      "Ġflu": 4463,
      "Ġtraveled": 4464,
      "Ġdrives": 4465,
      "Ġevents": 4466,
      "Ġpleasant": 4467,
      "Ġmistakes": 4468,
      "Ġgrandparents": 4469,
      "Ġcartoons": 4470,
      "Ġsurvive": 4471,
      "ĠFlorida": 4472,
      "cles": 4473,
      "ker": 4474,
      "ration": 4475,
      "Ġsle": 4476,
      "Ġlu": 4477,
      "orrow": 4478,
      "orable": 4479,
      "Ġgig": 4480,
      "ĠTuesday": 4481,
      "ĠHapp": 4482,
      "Ġchess": 4483,
      "Ġexact": 4484,
      "Ġknowing": 4485,
      "Ġord": 4486,
      "Ġconstr": 4487,
      "Ġhearing": 4488,
      "Ġterrifying": 4489,
      "Ġheading": 4490,
      "ground": 4491,
      "Ġsimp": 4492,
      "Ġemployed": 4493,
      "Ġcashier": 4494,
      "coming": 4495,
      "Ġdragon": 4496,
      "Ġrecipe": 4497,
      "345": 4498,
      "64": 4499,
      "ners": 4500,
      "off": 4501,
      "Ġbout": 4502,
      "Ġfart": 4503,
      "Ġnap": 4504,
      "lder": 4505,
      "verage": 4506,
      "Ġkay": 4507,
      "Ġsomebody": 4508,
      "Ġclothing": 4509,
      "Ġmark": 4510,
      "ansas": 4511,
      "Ġaddict": 4512,
      "Ġgifts": 4513,
      "Ġitaly": 4514,
      "Ġbowl": 4515,
      "Ġbott": 4516,
      "Ġbottle": 4517,
      "Ġwreck": 4518,
      "Ġnobody": 4519,
      "Ġparrot": 4520,
      "72": 4521,
      "Ġdumb": 4522,
      "Ġcap": 4523,
      "Ġpan": 4524,
      "Ġpoop": 4525,
      "arah": 4526,
      "iding": 4527,
      "Ġheld": 4528,
      "Ġwest": 4529,
      "ĠTry": 4530,
      "Ġstaff": 4531,
      "Ġabove": 4532,
      "Ġrules": 4533,
      "ĠMs": 4534,
      "ĠDef": 4535,
      "Ġfest": 4536,
      "Ġleague": 4537,
      "Ġsmile": 4538,
      "Ġlegs": 4539,
      "Thank": 4540,
      "Ġpurp": 4541,
      "Ġentertain": 4542,
      "Ġphoto": 4543,
      "Ġburrit": 4544,
      "Ġcreative": 4545,
      "Ġcenter": 4546,
      "Ġturning": 4547,
      "Ġreligious": 4548,
      "Ġmechanic": 4549,
      "Ġarrange": 4550,
      "Ġfavourite": 4551,
      "32": 4552,
      "sist": 4553,
      "Ġbars": 4554,
      "Ġcried": 4555,
      "Ġciv": 4556,
      "vey": 4557,
      "Ġwasnt": 4558,
      "Ġneck": 4559,
      "Ġprin": 4560,
      "Ġprint": 4561,
      "ains": 4562,
      "Ġmanaged": 4563,
      "Ġeverybody": 4564,
      "reek": 4565,
      "Ġscreen": 4566,
      "Ġbuilt": 4567,
      "Ġdrums": 4568,
      "Ġflat": 4569,
      "Ġflood": 4570,
      "Ġrelated": 4571,
      "Ġpercent": 4572,
      "Ġstrict": 4573,
      "Ġinsane": 4574,
      "294": 4575,
      "Ġgroceries": 4576,
      "Ġlaughing": 4577,
      "Ġtechnology": 4578,
      "Ġsewing": 4579,
      "Ġfolk": 4580,
      "bucks": 4581,
      "Ġnerves": 4582,
      "544": 4583,
      "dog": 4584,
      "Ġtoes": 4585,
      "Ġeh": 4586,
      "aly": 4587,
      "Ġmoder": 4588,
      "Ġexcuse": 4589,
      "Ġconvers": 4590,
      "Ġguard": 4591,
      "Ġpretend": 4592,
      "Ġtwins": 4593,
      "Ġbugs": 4594,
      "ointing": 4595,
      "Ġvegas": 4596,
      "Ġcrit": 4597,
      "438": 4598,
      "Ġnumbers": 4599,
      "Ġmenu": 4600,
      "Ġcampus": 4601,
      "Ġincredible": 4602,
      "Ġskateboard": 4603,
      "cription": 4604,
      "81": 4605,
      "aa": 4606,
      "met": 4607,
      "nam": 4608,
      "ode": 4609,
      "ram": 4610,
      "uits": 4611,
      "Ġwww": 4612,
      "Ġfac": 4613,
      "Ġcorn": 4614,
      "orting": 4615,
      "Ġpil": 4616,
      "Ġore": 4617,
      "iting": 4618,
      "Ġhamb": 4619,
      "Ġsty": 4620,
      "Ġrice": 4621,
      "ĠHer": 4622,
      "Ġmoon": 4623,
      "ĠDang": 4624,
      "Ġcloud": 4625,
      "Ġtrick": 4626,
      "ept": 4627,
      "Ġflower": 4628,
      "Ġleaves": 4629,
      "There": 4630,
      "Ġheadache": 4631,
      "Ġreceipt": 4632,
      "play": 4633,
      "ĠOnce": 4634,
      "Ġengineer": 4635,
      "Ġstepped": 4636,
      "Ġarrive": 4637,
      "Ġphysic": 4638,
      "Ġcarpet": 4639,
      "Ġomg": 4640,
      "82": 4641,
      "fish": 4642,
      "ipping": 4643,
      "ront": 4644,
      "Ġbat": 4645,
      "Ġcig": 4646,
      "Ġcable": 4647,
      "Ġpath": 4648,
      "Ġpacking": 4649,
      "Ġniece": 4650,
      "Ġlif": 4651,
      "the": 4652,
      "ĠHas": 4653,
      "Ġhip": 4654,
      "Ġovertime": 4655,
      "Ġmustang": 4656,
      "Ġrelief": 4657,
      "ĠIsn": 4658,
      "ocks": 4659,
      "Ġlesson": 4660,
      "Ġpacked": 4661,
      "Ġholding": 4662,
      "Ġjournal": 4663,
      "Ġathletic": 4664,
      "Ġnecessary": 4665,
      "Ġhambur": 4666,
      "Ġaverage": 4667,
      "Ġhost": 4668,
      "Ġmystery": 4669,
      "Ġhabit": 4670,
      "Ġsuff": 4671,
      "Ġfrance": 4672,
      "Ġprices": 4673,
      "ĠBill": 4674,
      "ction": 4675,
      "Ġages": 4676,
      "ĠGive": 4677,
      "Ġpreparing": 4678,
      "Ġbased": 4679,
      "Ġbible": 4680,
      "ĠBesides": 4681,
      "Ġchanges": 4682,
      "Ġfilled": 4683,
      "Ġbaker": 4684,
      "Ġbakery": 4685,
      "Ġgarage": 4686,
      "Ġvalue": 4687,
      "Ġincluding": 4688,
      "Ġcommunic": 4689,
      "Ġimmediately": 4690,
      "Ġstrawber": 4691,
      "Ġsoul": 4692,
      "Ġnavy": 4693,
      "Ġheal": 4694,
      "Ġmemb": 4695,
      "Ġsup": 4696,
      "Ġpresident": 4697,
      "ĠProbably": 4698,
      "els": 4699,
      "Ġcolorado": 4700,
      "Ġcrack": 4701,
      "Ġadvance": 4702,
      "Ġservices": 4703,
      "Ġdiscover": 4704,
      "Ġcatching": 4705,
      "ĠShall": 4706,
      "Ġchanging": 4707,
      "Ġfollowing": 4708,
      "Ġbummed": 4709,
      "Ġopposit": 4710,
      "Ġdelivered": 4711,
      "ĠDisney": 4712,
      "Ġvehicle": 4713,
      "Ġmembers": 4714,
      "Ġtut": 4715,
      "uses": 4716,
      "Ġ..": 4717,
      "rest": 4718,
      "Ġbear": 4719,
      "Ġbeans": 4720,
      "554": 4721,
      "Ġroof": 4722,
      "ĠMike": 4723,
      "Ġpride": 4724,
      "Ġcommer": 4725,
      "ĠBet": 4726,
      "Ġclosed": 4727,
      "Ġcleaned": 4728,
      "226": 4729,
      "retty": 4730,
      "Ġcali": 4731,
      "Ġdrivers": 4732,
      "Ġbreath": 4733,
      "ĠWorld": 4734,
      "Ġhomes": 4735,
      "243": 4736,
      "Ġsour": 4737,
      "Ġban": 4738,
      "Ġbing": 4739,
      "Ġlaid": 4740,
      "Ġstri": 4741,
      "Ġkat": 4742,
      "Ġspouse": 4743,
      "Ġkeys": 4744,
      "Ġinterests": 4745,
      "Ġ500": 4746,
      "ubby": 4747,
      "fortunately": 4748,
      "enses": 4749,
      "Ġcompetit": 4750,
      "Ġroommates": 4751,
      "Ġrequire": 4752,
      "Ġengineering": 4753,
      "Ġemergency": 4754,
      "ĠHappy": 4755,
      "gage": 4756,
      "ps": 4757,
      "Ġtit": 4758,
      "Ġtail": 4759,
      "style": 4760,
      "anch": 4761,
      "anie": 4762,
      "Ġbey": 4763,
      "oped": 4764,
      "ĠCar": 4765,
      "ĠChe": 4766,
      "Ġherself": 4767,
      "Ġdiving": 4768,
      "Ġeaten": 4769,
      "Ġmars": 4770,
      "Ġresume": 4771,
      "ception": 4772,
      "Ġparis": 4773,
      "ĠShould": 4774,
      "olley": 4775,
      "Ġcharacters": 4776,
      "Ġpeaceful": 4777,
      "Ġtaxi": 4778,
      "Ġromance": 4779,
      "Ġskyd": 4780,
      "Ġdocument": 4781,
      "Ġstruggling": 4782,
      "Ġjudge": 4783,
      "No": 4784,
      "aks": 4785,
      "hen": 4786,
      "nic": 4787,
      "you": 4788,
      "Ġbass": 4789,
      "Ġtow": 4790,
      "Ġgerman": 4791,
      "Ġpa": 4792,
      "Ġjumped": 4793,
      "allow": 4794,
      "Ġstren": 4795,
      "550": 4796,
      "ĠDay": 4797,
      "agles": 4798,
      "ĠPretty": 4799,
      "Ġterms": 4800,
      "Ġphil": 4801,
      "ording": 4802,
      "Ġgreet": 4803,
      "ĠMrs": 4804,
      "ĠTrump": 4805,
      "Ġlawn": 4806,
      "Ġemotional": 4807,
      "Ġgoogle": 4808,
      "Ġscientist": 4809,
      "Ġsimply": 4810,
      "bage": 4811,
      "care": 4812,
      "lar": 4813,
      "school": 4814,
      "Ġpump": 4815,
      "Ġpapers": 4816,
      "ara": 4817,
      "Ġstars": 4818,
      "ĠSchool": 4819,
      "Ġabroad": 4820,
      "ĠDavid": 4821,
      "Ġdonate": 4822,
      "Ġconstantly": 4823,
      "Ġunf": 4824,
      "Ġagreed": 4825,
      "ĠHowever": 4826,
      "Ġscream": 4827,
      "Ġmoments": 4828,
      "Ġfinance": 4829,
      "Ġrecent": 4830,
      "Ġwrote": 4831,
      "Ġbreaking": 4832,
      "Ġbooked": 4833,
      "Ġopening": 4834,
      "Ġforest": 4835,
      "Ġbags": 4836,
      "Ġliterally": 4837,
      "Ġliterature": 4838,
      "Ġbenefits": 4839,
      "Ġtutor": 4840,
      "Ġstrength": 4841,
      "123": 4842,
      "37": 4843,
      "343": 4844,
      "tt": 4845,
      "ugs": 4846,
      "Ġpage": 4847,
      "Ġpissed": 4848,
      "Ġisland": 4849,
      "Ġeast": 4850,
      "Ġhadn": 4851,
      "Ġbros": 4852,
      "Ġwaited": 4853,
      "Ġactress": 4854,
      "Ġchem": 4855,
      "Ġtripped": 4856,
      "Ġdesp": 4857,
      "Ġpurse": 4858,
      "Ġreasons": 4859,
      "worker": 4860,
      "Ġmessed": 4861,
      "Ġtransport": 4862,
      "ĠGoing": 4863,
      "Ġruined": 4864,
      "Ġpatient": 4865,
      "Ġtalented": 4866,
      "ca": 4867,
      "kin": 4868,
      "Ġtables": 4869,
      "using": 4870,
      "etic": 4871,
      "Ġjog": 4872,
      "Ġkansas": 4873,
      "ĠSame": 4874,
      "Ġshar": 4875,
      "ĠDep": 4876,
      "Ġhitting": 4877,
      "Ġprevious": 4878,
      "ĠCal": 4879,
      "Ġrelieve": 4880,
      "Ġskill": 4881,
      "Ġsnack": 4882,
      "Ġtrained": 4883,
      "Ġairpl": 4884,
      "Ġpossib": 4885,
      "ĠAlso": 4886,
      "Ġbudget": 4887,
      "Ġapplying": 4888,
      "Ġadopt": 4889,
      "Ġopposite": 4890,
      "Ġbeyond": 4891,
      "42": 4892,
      "52": 4893,
      "Ġwet": 4894,
      "Ġmic": 4895,
      "Ġmasters": 4896,
      "Ġded": 4897,
      "Ġfully": 4898,
      "orter": 4899,
      "Ġgain": 4900,
      "Ġpal": 4901,
      "Ġhall": 4902,
      "lew": 4903,
      "chet": 4904,
      "Ġgoals": 4905,
      "Ġability": 4906,
      "ille": 4907,
      "Ġhire": 4908,
      "ished": 4909,
      "ression": 4910,
      "Ġmusical": 4911,
      "Ġ24": 4912,
      "ĠEurope": 4913,
      "Ġadorable": 4914,
      "Ġwritten": 4915,
      "arently": 4916,
      "Ġbrew": 4917,
      "Ġunderstanding": 4918,
      "ify": 4919,
      "Ġdealing": 4920,
      "Ġrainy": 4921,
      "Ġcosts": 4922,
      "Ġtasty": 4923,
      "Ġriver": 4924,
      "ophy": 4925,
      "Ġcabin": 4926,
      "Ġtherapy": 4927,
      "ĠDefinitely": 4928,
      "Wow": 4929,
      "cast": 4930,
      "ipped": 4931,
      "tim": 4932,
      "inarian": 4933,
      "Ġfee": 4934,
      "Ġgorge": 4935,
      "ening": 4936,
      "Ġreject": 4937,
      "isher": 4938,
      "Ġjim": 4939,
      "imum": 4940,
      "Ġstolen": 4941,
      "Ġkitten": 4942,
      "ppers": 4943,
      "Ġplate": 4944,
      "Ġknee": 4945,
      "ilies": 4946,
      "Ġmusician": 4947,
      "uel": 4948,
      "Ġcollecting": 4949,
      "Ġtons": 4950,
      "rown": 4951,
      "ictor": 4952,
      "Ġfalling": 4953,
      "Ġgenre": 4954,
      "uced": 4955,
      "Ġwalmart": 4956,
      "Ġarrived": 4957,
      "Ġcloser": 4958,
      "Ġpurchase": 4959,
      "Ġveterinarian": 4960,
      "rupt": 4961,
      "Ġpooped": 4962,
      "Ġdisappointing": 4963,
      "She": 4964,
      "sis": 4965,
      "Ġbb": 4966,
      "Ġfond": 4967,
      "Ġfift": 4968,
      "isa": 4969,
      "cha": 4970,
      "Ġjoke": 4971,
      "Ġlob": 4972,
      "under": 4973,
      "ĠSe": 4974,
      "ĠYup": 4975,
      "that": 4976,
      "Ġrose": 4977,
      "Ġrocks": 4978,
      "ĠEn": 4979,
      "Ġbuff": 4980,
      "Ġdislike": 4981,
      "Ġcollea": 4982,
      "Ġends": 4983,
      "Ġadvant": 4984,
      "Ġsecretary": 4985,
      "Ġsalesman": 4986,
      "Ġboxes": 4987,
      "Ġemployee": 4988,
      "ĠUnfortunately": 4989,
      "Ġbrain": 4990,
      "Ġgambling": 4991,
      "Ġchilling": 4992,
      "Ġpolitics": 4993,
      "Ġattractive": 4994,
      "Ġprotect": 4995,
      "Ġobsess": 4996,
      "Ġheights": 4997,
      "Ġpurpose": 4998,
      "hop": 4999,
      "kward": 5000,
      "mail": 5001,
      "rd": 5002,
      "Ġtight": 5003,
      "Ġmart": 5004,
      "Ġtoil": 5005,
      "Ġloose": 5006,
      "Ġnut": 5007,
      "Ġjane": 5008,
      "Ġweak": 5009,
      "Ġstones": 5010,
      "Ġfridge": 5011,
      "Ġexc": 5012,
      "Ġspl": 5013,
      "Ġviking": 5014,
      "Ġbands": 5015,
      "ĠKind": 5016,
      "Ġenter": 5017,
      "Ġheartb": 5018,
      "Ġfollowed": 5019,
      "Ġfrequ": 5020,
      "Ġspray": 5021,
      "Ġobvious": 5022,
      "Ġathlete": 5023,
      "Ġretirement": 5024,
      "Ġdocuments": 5025,
      "Ġmagazine": 5026,
      "Ġlizard": 5027,
      "ĠCompany": 5028,
      "Ġencou": 5029,
      "Ġcrochet": 5030,
      "gent": 5031,
      "len": 5032,
      "Ġut": 5033,
      "Ġlower": 5034,
      "Ġpity": 5035,
      "ĠThursday": 5036,
      "Ġchin": 5037,
      "ĠMine": 5038,
      "iled": 5039,
      "Ġawkward": 5040,
      "Ġcomplic": 5041,
      "ached": 5042,
      "111": 5043,
      "Ġterribly": 5044,
      "Ġthoughts": 5045,
      "176": 5046,
      "267": 5047,
      "433": 5048,
      "Ġfitness": 5049,
      "Ġjapanese": 5050,
      "Ġspiders": 5051,
      "Ġrescue": 5052,
      "Ġferr": 5053,
      "Ġconcerned": 5054,
      "Ġpoetry": 5055,
      "Ġconstruction": 5056,
      "Ġconversation": 5057,
      "zen": 5058,
      "Ġwide": 5059,
      "Ġhates": 5060,
      "Ġfasc": 5061,
      "etch": 5062,
      "Ġbelt": 5063,
      "Ġren": 5064,
      "ĠTime": 5065,
      "ĠSus": 5066,
      "Ġshut": 5067,
      "ĠHot": 5068,
      "Ġchair": 5069,
      "Ġcos": 5070,
      "cket": 5071,
      "Ġreader": 5072,
      "Ġprog": 5073,
      "Ġuseful": 5074,
      "Ġreality": 5075,
      "Ġsweater": 5076,
      "Ġbiking": 5077,
      "Ġcorve": 5078,
      "Ġinternational": 5079,
      "302": 5080,
      "Ġdistract": 5081,
      "Ġgeorge": 5082,
      "Ġfolks": 5083,
      "Ġadventure": 5084,
      "Ġdemand": 5085,
      "Ġslipped": 5086,
      "344": 5087,
      "iff": 5088,
      "Ġty": 5089,
      "Ġtie": 5090,
      "enny": 5091,
      "ician": 5092,
      "iculous": 5093,
      "ades": 5094,
      "see": 5095,
      "Ġbutt": 5096,
      "ĠMad": 5097,
      "Ġawe": 5098,
      "Ġteeth": 5099,
      "Ġmeaning": 5100,
      "Ġtrains": 5101,
      "Ġincome": 5102,
      "460": 5103,
      "Ġsigned": 5104,
      "Ġsymp": 5105,
      "Ġpassionate": 5106,
      "Ġcrying": 5107,
      "Ġfurther": 5108,
      "Ġcreepy": 5109,
      "Ġgorgeous": 5110,
      "Ġhy": 5111,
      "Ġmer": 5112,
      "Ġbite": 5113,
      "Ġboston": 5114,
      "Ġni": 5115,
      "Ġexh": 5116,
      "Ġfab": 5117,
      "Ġdev": 5118,
      "Ġvolley": 5119,
      "Ġunique": 5120,
      "Ġohio": 5121,
      "Ġclient": 5122,
      "Ġblow": 5123,
      "Ġbucks": 5124,
      "ĠPh": 5125,
      "Ġlifestyle": 5126,
      "Ġ35": 5127,
      "roll": 5128,
      "Ġpolicy": 5129,
      "Ġ70": 5130,
      "Ġfinanci": 5131,
      "Ġtomatoes": 5132,
      "ĠSpanish": 5133,
      "Ġspirit": 5134,
      "ĠSuper": 5135,
      "Ġcompetitive": 5136,
      "Ġfascin": 5137,
      "AT": 5138,
      "ville": 5139,
      "Ġsection": 5140,
      "Ġcere": 5141,
      "Ġlines": 5142,
      "aris": 5143,
      "Ġjew": 5144,
      "ĠWang": 5145,
      "ĠSouth": 5146,
      "Ġcancell": 5147,
      "Ġcher": 5148,
      "urb": 5149,
      "Ġsomehow": 5150,
      "ĠBar": 5151,
      "...,": 5152,
      "aches": 5153,
      "Ġpoll": 5154,
      "Ġrelaxed": 5155,
      "umber": 5156,
      "Ġtests": 5157,
      "Ġmedium": 5158,
      "434": 5159,
      "274": 5160,
      "Ġstanding": 5161,
      "Ġprofessionally": 5162,
      "506": 5163,
      "uggage": 5164,
      "ĠUniversity": 5165,
      "Ġdetails": 5166,
      "Ġhorseback": 5167,
      "Ġnyc": 5168,
      "Ġgarbage": 5169,
      "Ġbalance": 5170,
      "Ġvarious": 5171,
      "Ġopera": 5172,
      "ronic": 5173,
      "market": 5174,
      "ĠInternet": 5175,
      "ĠSusan": 5176,
      "41": 5177,
      "Ġx": 5178,
      "erm": 5179,
      "Ġthin": 5180,
      "Ġluggage": 5181,
      "orgia": 5182,
      "Ġreception": 5183,
      "ril": 5184,
      "ading": 5185,
      "Ġsocks": 5186,
      "Ġjustin": 5187,
      "eez": 5188,
      "Ġknocked": 5189,
      "Ġsaf": 5190,
      "Ġscar": 5191,
      "heart": 5192,
      "Ġotherwise": 5193,
      "ĠFin": 5194,
      "Ġphones": 5195,
      "Ġhighschool": 5196,
      "Ġchew": 5197,
      "Ġarts": 5198,
      "Ġsuperman": 5199,
      "Ġpassing": 5200,
      "Ġappreciated": 5201,
      "ĠAnyway": 5202,
      "Ġcompete": 5203,
      "icycle": 5204,
      "Ġlegal": 5205,
      "ĠTrue": 5206,
      "Ġlaund": 5207,
      "Ġmarathon": 5208,
      "Ġfortun": 5209,
      "ĠSteven": 5210,
      "Ġwebsite": 5211,
      "eptember": 5212,
      "Ġbbq": 5213,
      "92": 5214,
      "Ġbun": 5215,
      "Ġbart": 5216,
      "Ġcities": 5217,
      "Ġcertific": 5218,
      "ories": 5219,
      "Ġgraph": 5220,
      "Ġwhis": 5221,
      "iment": 5222,
      "Ġhowdy": 5223,
      "ĠSince": 5224,
      "Ġhired": 5225,
      "ĠDr": 5226,
      "Ġcoke": 5227,
      "Ġplayers": 5228,
      "ability": 5229,
      "aker": 5230,
      "Ġagency": 5231,
      "Ġfamilies": 5232,
      "ista": 5233,
      "Ġdrank": 5234,
      "Ġstudies": 5235,
      "Ġsuperher": 5236,
      "Ġcharged": 5237,
      "Ġdescri": 5238,
      "760": 5239,
      "Ġrelationships": 5240,
      "Ġsituations": 5241,
      "Ġcaused": 5242,
      "Ġvariety": 5243,
      "Ġoriginal": 5244,
      "Ġchoices": 5245,
      "Ġsuddenly": 5246,
      "Ġincrease": 5247,
      "Ġsusp": 5248,
      "timore": 5249,
      "Ġtoilet": 5250,
      "71": 5251,
      "cious": 5252,
      "mare": 5253,
      "town": 5254,
      "ĠX": 5255,
      "Ġwave": 5256,
      "Ġmaster": 5257,
      "Ġdread": 5258,
      "Ġfright": 5259,
      "Ġcud": 5260,
      "Ġgate": 5261,
      "Ġnfl": 5262,
      "Ġing": 5263,
      "Ġareas": 5264,
      "Ġkit": 5265,
      "Ġshoe": 5266,
      "Ġchrist": 5267,
      "ĠMex": 5268,
      "Ġcock": 5269,
      "Ġvir": 5270,
      "ummer": 5271,
      "Ġagg": 5272,
      "Ġblank": 5273,
      "ĠPark": 5274,
      "ĠIndeed": 5275,
      "Ġtrainer": 5276,
      "Ġforgive": 5277,
      "Ġchickens": 5278,
      "ĠSomething": 5279,
      "Ġtransl": 5280,
      "Ġharry": 5281,
      "ĠTomorrow": 5282,
      "Ġfifty": 5283,
      "Ġsociety": 5284,
      "Ġsuperv": 5285,
      "Do": 5286,
      "aim": 5287,
      "ern": 5288,
      "Ġhat": 5289,
      "Ġmir": 5290,
      "Ġboo": 5291,
      "Ġpanc": 5292,
      "Ġnail": 5293,
      "Ġange": 5294,
      "Ġformer": 5295,
      "unted": 5296,
      "ĠAd": 5297,
      "Ġvom": 5298,
      "Ġaww": 5299,
      "ĠLife": 5300,
      "aging": 5301,
      "Ġnightmare": 5302,
      "ucky": 5303,
      "Ġflash": 5304,
      "Ġunderstandable": 5305,
      "ancis": 5306,
      "Ġimm": 5307,
      "ĠStates": 5308,
      "Ġkilling": 5309,
      "Ġfighting": 5310,
      "Ġemail": 5311,
      "Ġstarbucks": 5312,
      "Ġjoined": 5313,
      "Ġoptions": 5314,
      "Ġcloset": 5315,
      "Ġamerica": 5316,
      "ĠGrand": 5317,
      "Ġcircus": 5318,
      "Ġowl": 5319,
      "Ġquarter": 5320,
      "Ġcigare": 5321,
      "Ġlaundry": 5322,
      "349": 5323,
      "cing": 5324,
      "giving": 5325,
      "wood": 5326,
      "yard": 5327,
      "Ġum": 5328,
      "Ġtab": 5329,
      "stairs": 5330,
      "Ġwings": 5331,
      "Ġdying": 5332,
      "Ġfool": 5333,
      "Ġcents": 5334,
      "Ġpee": 5335,
      "Ġinch": 5336,
      "alian": 5337,
      "ĠThings": 5338,
      "Ġgos": 5339,
      "Ġwithdra": 5340,
      "Ġbutton": 5341,
      "Ġintense": 5342,
      "umn": 5343,
      "Ġarrest": 5344,
      "Ġaward": 5345,
      "Ġdoesnt": 5346,
      "Ġdrugs": 5347,
      "ocking": 5348,
      "Ġbelong": 5349,
      "Ġskirt": 5350,
      "Ġsweets": 5351,
      "ĠUs": 5352,
      "althy": 5353,
      "Ġcurly": 5354,
      "when": 5355,
      "Ġbeaches": 5356,
      "Ġcharlie": 5357,
      "191": 5358,
      "Ġuh": 5359,
      "Ġfigured": 5360,
      "Ġnephews": 5361,
      "Ġwrest": 5362,
      "Ġguns": 5363,
      "Ġmodern": 5364,
      "\".": 5365,
      "340": 5366,
      "63": 5367,
      "855": 5368,
      "vior": 5369,
      "ania": 5370,
      "Ġmike": 5371,
      "reland": 5372,
      "Ġfile": 5373,
      "Ġtoe": 5374,
      "Ġnic": 5375,
      "Ġreun": 5376,
      "isor": 5377,
      "ential": 5378,
      "Ġworkers": 5379,
      "ceed": 5380,
      "Ġoutf": 5381,
      "aren": 5382,
      "Ġmush": 5383,
      "Ġsex": 5384,
      "Ġ26": 5385,
      "ipe": 5386,
      "152": 5387,
      "ledge": 5388,
      "Ġsorts": 5389,
      "Ġgenerally": 5390,
      "ĠUnited": 5391,
      "Ġbeatles": 5392,
      "Ġfrustrated": 5393,
      "Ġtuna": 5394,
      "Ġdestroyed": 5395,
      "Ġfifteen": 5396,
      "Ġwithdraw": 5397,
      "aven": 5398,
      "Ġigu": 5399,
      "Ġthri": 5400,
      "Ġmass": 5401,
      "Ġdorm": 5402,
      "oni": 5403,
      "Ġgal": 5404,
      "Ġpunch": 5405,
      "Ġpunk": 5406,
      "Ġnick": 5407,
      "ĠTurn": 5408,
      "ended": 5409,
      "Ġchili": 5410,
      "Ġaltern": 5411,
      "ĠMust": 5412,
      "Ġfruits": 5413,
      "Ġupcoming": 5414,
      "Ġbranch": 5415,
      "epend": 5416,
      "Ġshouldnt": 5417,
      "Ġselect": 5418,
      "istry": 5419,
      "Ġtraum": 5420,
      "ĠPro": 5421,
      "Ġterm": 5422,
      "Ġhahaha": 5423,
      "Ġearn": 5424,
      "Ġident": 5425,
      "Ġretri": 5426,
      "Ġbirds": 5427,
      "Ġinfl": 5428,
      "334": 5429,
      "Ġinternship": 5430,
      "Ġcupc": 5431,
      "Ġtalks": 5432,
      "Ġbaltimore": 5433,
      "Ġadmit": 5434,
      "Ġexhausted": 5435,
      "Ġtemperature": 5436,
      "nesday": 5437,
      "Ġpilot": 5438,
      "Ġobsessed": 5439,
      "Ġcorvette": 5440,
      "Ġfabulous": 5441,
      "Ġfinancially": 5442,
      "91": 5443,
      "Did": 5444,
      "Last": 5445,
      "boy": 5446,
      "rica": 5447,
      "val": 5448,
      "anes": 5449,
      "ened": 5450,
      "ĠHaw": 5451,
      "ĠMakes": 5452,
      "ulation": 5453,
      "Ġsomewhat": 5454,
      "ĠOlymp": 5455,
      "Ġupon": 5456,
      "Ġourselves": 5457,
      "iple": 5458,
      "ĠPeter": 5459,
      "Ġdrama": 5460,
      "Ġperm": 5461,
      "Ġremembered": 5462,
      "ĠRem": 5463,
      "Ġpress": 5464,
      "box": 5465,
      "160": 5466,
      "Ġsett": 5467,
      "297": 5468,
      "ĠBeing": 5469,
      "Ġtastes": 5470,
      "Ġfairly": 5471,
      "Ġsteps": 5472,
      "Ġpersonality": 5473,
      "Ġsavings": 5474,
      "Ġinclude": 5475,
      "Ġmiser": 5476,
      "Ġintroduce": 5477,
      "Ġbehavior": 5478,
      "Ġracing": 5479,
      "Ġchinese": 5480,
      "Ġsafety": 5481,
      "600": 5482,
      "880": 5483,
      "ER": 5484,
      "corn": 5485,
      "gues": 5486,
      "hu": 5487,
      "ik": 5488,
      "kins": 5489,
      "ral": 5490,
      "Ġwars": 5491,
      "Ġgri": 5492,
      "enn": 5493,
      "Ġheaven": 5494,
      "ales": 5495,
      "Ġlikely": 5496,
      "Ġkiss": 5497,
      "Ġsuits": 5498,
      "ulf": 5499,
      "Ġmansion": 5500,
      "akers": 5501,
      "Ġrunner": 5502,
      "ĠCanada": 5503,
      "Ġending": 5504,
      "Ġrepe": 5505,
      "Ġsmaller": 5506,
      "Ġsweetheart": 5507,
      "Ġdesert": 5508,
      "Ġprofessor": 5509,
      "Why": 5510,
      "Ġpopcorn": 5511,
      "Ġindepend": 5512,
      "ĠShan": 5513,
      "ĠAlright": 5514,
      "Ġclubs": 5515,
      "Ġgaming": 5516,
      "Ġassign": 5517,
      "Ġequip": 5518,
      "Ġhonor": 5519,
      "Ġunemployed": 5520,
      "Ġcomplicated": 5521,
      "Ġprogress": 5522,
      "oly": 5523,
      "vere": 5524,
      "Ġtip": 5525,
      "Ġhonda": 5526,
      "onder": 5527,
      "Ġpin": 5528,
      "Ġpun": 5529,
      "otions": 5530,
      "amb": 5531,
      "ĠHallow": 5532,
      "ober": 5533,
      "ctober": 5534,
      "Ġunit": 5535,
      "Ġdiag": 5536,
      "Ġoverw": 5537,
      "ĠJane": 5538,
      "Ġdowntown": 5539,
      "roat": 5540,
      "Ġamazed": 5541,
      "Ġpainful": 5542,
      "Ġgraduating": 5543,
      "Ġexercising": 5544,
      "Ġperfectly": 5545,
      "Ġbroad": 5546,
      "Ġconsidering": 5547,
      "Ġformal": 5548,
      "Ġslowly": 5549,
      "Ġorganized": 5550,
      "Ġmatches": 5551,
      "Ġoriginally": 5552,
      "Ġmarathons": 5553,
      "Ġstamps": 5554,
      "gon": 5555,
      "erence": 5556,
      "Ġsarah": 5557,
      "Ġyoure": 5558,
      "Ġgather": 5559,
      "Ġnintendo": 5560,
      "Ġelder": 5561,
      "ghai": 5562,
      "Ġstat": 5563,
      "ĠSc": 5564,
      "Ġrange": 5565,
      "eaf": 5566,
      "each": 5567,
      "uled": 5568,
      "ecake": 5569,
      "Ġgreatest": 5570,
      "ores": 5571,
      "Ġconv": 5572,
      "Ġbackyard": 5573,
      "Ġ22": 5574,
      "Ġblock": 5575,
      "Ġbug": 5576,
      "Ġflies": 5577,
      "ogn": 5578,
      "Ġresol": 5579,
      "Ġconfront": 5580,
      "ĠUm": 5581,
      "Ġsupermarket": 5582,
      "Ġdolls": 5583,
      "Ġlandlor": 5584,
      "Ġgroups": 5585,
      "Ġcrossed": 5586,
      "Ġportland": 5587,
      "Ġconnect": 5588,
      "Ġshooting": 5589,
      "Ġpicking": 5590,
      "Someone": 5591,
      "Ġphilos": 5592,
      "Ġobviously": 5593,
      "cut": 5594,
      "cling": 5595,
      "made": 5596,
      "vis": 5597,
      "Ġted": 5598,
      "Ġtips": 5599,
      "Ġaustralia": 5600,
      "Ġireland": 5601,
      "Ġwis": 5602,
      "Ġsep": 5603,
      "Ġdump": 5604,
      "Ġpad": 5605,
      "Ġpork": 5606,
      "aylor": 5607,
      "ooo": 5608,
      "ĠToo": 5609,
      "Ġstage": 5610,
      "Ġkitt": 5611,
      "Ġrural": 5612,
      "Ġdaycare": 5613,
      "ĠBrown": 5614,
      "Ġhero": 5615,
      "umping": 5616,
      "oli": 5617,
      "Ġrights": 5618,
      "Ġappet": 5619,
      "Ġshowing": 5620,
      "Ġdads": 5621,
      "Ġembar": 5622,
      "Ġbarista": 5623,
      "Ġsettle": 5624,
      "Ġrides": 5625,
      "Ġridiculous": 5626,
      "Ġprius": 5627,
      "Ġoutdoor": 5628,
      "Ġbrownies": 5629,
      "Ġoptim": 5630,
      "Ġsundays": 5631,
      "Ġaccomplishment": 5632,
      "Ġnegative": 5633,
      "Ġdeserved": 5634,
      "Ġguests": 5635,
      "Ġresponsibility": 5636,
      "Ġcooper": 5637,
      "Ġinstructor": 5638,
      "ictorian": 5639,
      "Ġmiserable": 5640,
      "ĠHalloween": 5641,
      "--": 5642,
      "785": 5643,
      "AM": 5644,
      "Is": 5645,
      "dies": 5646,
      "kn": 5647,
      "list": 5648,
      "men": 5649,
      "uary": 5650,
      "west": 5651,
      "Ġhated": 5652,
      "Ġhaunted": 5653,
      "imate": 5654,
      "Ġnotes": 5655,
      "ĠYikes": 5656,
      "Ġrow": 5657,
      "oyment": 5658,
      "cons": 5659,
      "Ġdest": 5660,
      "Ġfuneral": 5661,
      "Ġpeppers": 5662,
      "Ġawake": 5663,
      "ĠLe": 5664,
      "Ġsci": 5665,
      "Ġrecogn": 5666,
      "ĠRoom": 5667,
      "Ġconfused": 5668,
      "Ġhandful": 5669,
      "Ġgiant": 5670,
      "ĠStill": 5671,
      "950": 5672,
      "Ġvolunteering": 5673,
      "Ġorganic": 5674,
      "Ġestate": 5675,
      "Ġaudition": 5676,
      "Ġpieces": 5677,
      "Ġrobbed": 5678,
      "Ġorders": 5679,
      "Ġingred": 5680,
      "can": 5681,
      "gain": 5682,
      "kids": 5683,
      "ushing": 5684,
      "rees": 5685,
      "orms": 5686,
      "ences": 5687,
      "Ġpor": 5688,
      "Ġpound": 5689,
      "Ġol": 5690,
      "Ġowe": 5691,
      "Ġheck": 5692,
      "Ġloans": 5693,
      "Ġshock": 5694,
      "ĠHar": 5695,
      "Ġchose": 5696,
      "Ġchips": 5697,
      "ĠMic": 5698,
      "Ġexist": 5699,
      "Ġcoat": 5700,
      "ĠCity": 5701,
      "Ġbrit": 5702,
      "Ġbrun": 5703,
      "Ġcomplet": 5704,
      "hel": 5705,
      "Ġexpl": 5706,
      "Ġexpress": 5707,
      "hael": 5708,
      "roken": 5709,
      "1043": 5710,
      "Ġcharity": 5711,
      "Ġraising": 5712,
      "ologist": 5713,
      "Ġgeorgia": 5714,
      "Ġblessed": 5715,
      "Ġlasag": 5716,
      "Ġbottom": 5717,
      "Ġdiscovered": 5718,
      "Ġadvantage": 5719,
      "Ġretriever": 5720,
      "Ġlandlord": 5721,
      "125": 5722,
      "62": 5723,
      "65": 5724,
      "here": 5725,
      "ts": 5726,
      "tain": 5727,
      "Ġtig": 5728,
      "Ġfry": 5729,
      "Ġpand": 5730,
      "Ġpumped": 5731,
      "Ġbeers": 5732,
      "Ġrefer": 5733,
      "ĠTai": 5734,
      "ĠSO": 5735,
      "Ġrarely": 5736,
      "illa": 5737,
      "Ġchip": 5738,
      "ieber": 5739,
      "Ġagent": 5740,
      "Ġblues": 5741,
      "Ġtells": 5742,
      "ĠPa": 5743,
      "ĠFeel": 5744,
      "Ġhighly": 5745,
      "ashed": 5746,
      "Ġdiner": 5747,
      "Ġbasic": 5748,
      "fortable": 5749,
      "ĠBefore": 5750,
      "Ġautom": 5751,
      "Ġdressing": 5752,
      "Ġlandsc": 5753,
      "Ġsupportive": 5754,
      "389": 5755,
      "minist": 5756,
      "Ġsuggestions": 5757,
      "olly": 5758,
      "Ġtelephone": 5759,
      "Ġtraditional": 5760,
      "Ġepis": 5761,
      "iami": 5762,
      "Ġladies": 5763,
      "Ġlobster": 5764,
      "Ġcolleagues": 5765,
      "ĠHotel": 5766,
      "ĠShanghai": 5767,
      "786": 5768,
      "BA": 5769,
      "hand": 5770,
      "law": 5771,
      "asure": 5772,
      "Ġmut": 5773,
      "Ġmax": 5774,
      "Ġbieber": 5775,
      "ĠIve": 5776,
      "otic": 5777,
      "Ġitself": 5778,
      "check": 5779,
      "Ġtool": 5780,
      "ĠBank": 5781,
      "ctic": 5782,
      "Ġuncom": 5783,
      "Ġguide": 5784,
      "Ġsurely": 5785,
      "Ġaware": 5786,
      "Ġactual": 5787,
      "ĠJul": 5788,
      "1159": 5789,
      "Ġbreaks": 5790,
      "Ġchevy": 5791,
      "Ġconference": 5792,
      "Ġgrandson": 5793,
      "Ġfigures": 5794,
      "Ġemployer": 5795,
      "Ġdirector": 5796,
      "Ġactivity": 5797,
      "Ġapproved": 5798,
      "Ġirritated": 5799,
      "Ġcrowded": 5800,
      "Ġtarget": 5801,
      "Ġbinge": 5802,
      "Ġnieces": 5803,
      "Ġexhib": 5804,
      "Ġvolleyball": 5805,
      "jack": 5806,
      "Ġmur": 5807,
      "reamed": 5808,
      "Ġcine": 5809,
      "Ġlord": 5810,
      "Ġlbs": 5811,
      "Ġgent": 5812,
      "Ġped": 5813,
      "ĠTra": 5814,
      "Ġhilar": 5815,
      "ĠAC": 5816,
      "Ġknowledge": 5817,
      "Ġcler": 5818,
      "Ġbrush": 5819,
      "Ġ23": 5820,
      "angers": 5821,
      "Ġowned": 5822,
      "Ġletting": 5823,
      "Ġaccording": 5824,
      "Ġshops": 5825,
      "Ġannoun": 5826,
      "Ġcraw": 5827,
      "Ġsnacks": 5828,
      "ĠKids": 5829,
      "ĠWhoa": 5830,
      "ĠFrom": 5831,
      "Ġprogramming": 5832,
      "Ġlaughed": 5833,
      "Ġbowling": 5834,
      "Ġassist": 5835,
      "Ġfiance": 5836,
      "Ġmaterial": 5837,
      "Ġexperienced": 5838,
      "Ġdye": 5839,
      "Ġcheesecake": 5840,
      "ĠQu": 5841,
      "Ġcuis": 5842,
      "Ġfascinating": 5843,
      "Ġsupervisor": 5844,
      "Ġsepar": 5845,
      "Ġoptimistic": 5846,
      "Ġhilarious": 5847,
      "246": 5848,
      "field": 5849,
      "la": 5850,
      "oor": 5851,
      "Ġtil": 5852,
      "Ġdental": 5853,
      "Ġbatter": 5854,
      "Ġlon": 5855,
      "Ġgay": 5856,
      "Ġtheat": 5857,
      "Ġpers": 5858,
      "omas": 5859,
      "icles": 5860,
      "Ġamong": 5861,
      "ĠItalian": 5862,
      "cember": 5863,
      "Ġspots": 5864,
      "Ġfund": 5865,
      "Ġbraces": 5866,
      "Ġcooler": 5867,
      "Ġbackground": 5868,
      "Ġseats": 5869,
      "Ġrode": 5870,
      "ĠGe": 5871,
      "ĠGreen": 5872,
      "ograp": 5873,
      "rency": 5874,
      "Ġaccess": 5875,
      "Ġguessing": 5876,
      "Ġarticle": 5877,
      "Ġserved": 5878,
      "ivid": 5879,
      "Ġreasonable": 5880,
      "Ġwarning": 5881,
      "Ġweights": 5882,
      "Ġrespond": 5883,
      "Ġcafe": 5884,
      "Ġburgers": 5885,
      "Ġattending": 5886,
      "Ġrequest": 5887,
      "Ġincluded": 5888,
      "hahah": 5889,
      "Ġculture": 5890,
      "Ġproperty": 5891,
      "Ġlimit": 5892,
      "Ġhmmm": 5893,
      "Ġeconomy": 5894,
      "Ġkayaking": 5895,
      "Ġburritos": 5896,
      "Ġskydiving": 5897,
      "Ġheartbroken": 5898,
      "Ġjewel": 5899,
      "Ġinflu": 5900,
      "Ġphilosophy": 5901,
      "Ġuncomfortable": 5902,
      "bble": 5903,
      "fact": 5904,
      "erry": 5905,
      "Ġhomet": 5906,
      "Ġsite": 5907,
      "anted": 5908,
      "Ġdust": 5909,
      "Ġdressed": 5910,
      "isy": 5911,
      "Ġonto": 5912,
      "ched": 5913,
      "Ġstre": 5914,
      "Ġrot": 5915,
      "ppies": 5916,
      "ĠAir": 5917,
      "Ġknock": 5918,
      "ĠOther": 5919,
      "ĠOuch": 5920,
      "Ġuniver": 5921,
      "Ġclue": 5922,
      "oles": 5923,
      "ĠJan": 5924,
      "Ġteaches": 5925,
      "Ġfarmer": 5926,
      "234": 5927,
      "Ġminimum": 5928,
      "Ġaffect": 5929,
      "Ġpotter": 5930,
      "Ġrolling": 5931,
      "Ġprojects": 5932,
      "Ġshirts": 5933,
      "Ġassum": 5934,
      "Ġscene": 5935,
      "Ġspider": 5936,
      "Ġalbum": 5937,
      "Ġaddicted": 5938,
      "Ġcancelled": 5939,
      "Ġalternative": 5940,
      "Ġelderly": 5941,
      "Ġjewelry": 5942,
      "Ġhometown": 5943,
      "97": 5944,
      "IN": 5945,
      "dings": 5946,
      "well": 5947,
      "Ġast": 5948,
      "Ġiced": 5949,
      "rell": 5950,
      "Ġcurious": 5951,
      "Ġhaw": 5952,
      "Ġhalo": 5953,
      "icking": 5954,
      "Ġmob": 5955,
      "ĠMc": 5956,
      "ĠMore": 5957,
      "ossible": 5958,
      "Ġstays": 5959,
      "Ġgrandkids": 5960,
      "gging": 5961,
      "Ġbookst": 5962,
      "Ġhurting": 5963,
      "Ġsneak": 5964,
      "ĠInd": 5965,
      "Ġserving": 5966,
      "airy": 5967,
      "Ġbikes": 5968,
      "Ġteams": 5969,
      "Ġinterviews": 5970,
      "ĠStar": 5971,
      "189": 5972,
      "Ġstandard": 5973,
      "Ġcorpor": 5974,
      "Ġpotato": 5975,
      "Ġprograms": 5976,
      "Ġimpression": 5977,
      "weight": 5978,
      "Ġconditions": 5979,
      "Ġstruggle": 5980,
      "Ġinspir": 5981,
      "Ġfinger": 5982,
      "Ġjerk": 5983,
      "Ġstealing": 5984,
      "Ġkarate": 5985,
      "Ġadvertising": 5986,
      "Ġrisk": 5987,
      "Ġescape": 5988,
      "Ġjournalist": 5989,
      "Ġequipment": 5990,
      "Ġoverwhel": 5991,
      ",<": 5992,
      "686": 5993,
      "876": 5994,
      "ES": 5995,
      "books": 5996,
      "born": 5997,
      "hold": 5998,
      "of": 5999,
      "round": 6000,
      "oust": 6001,
      "Ġthick": 6002,
      "Ġmal": 6003,
      "Ġdates": 6004,
      "Ġbattle": 6005,
      "ĠInt": 6006,
      "Ġnach": 6007,
      "Ġooh": 6008,
      "essi": 6009,
      "arant": 6010,
      "Ġjun": 6011,
      "ĠWed": 6012,
      "Ġworries": 6013,
      "sey": 6014,
      "Ġraw": 6015,
      "ĠWhite": 6016,
      "ups": 6017,
      "artment": 6018,
      "ĠCo": 6019,
      "Ġnowhere": 6020,
      "ques": 6021,
      "Ġarg": 6022,
      "Ġdiab": 6023,
      "Ġovercome": 6024,
      "ization": 6025,
      "Ġstudio": 6026,
      "Ġmonday": 6027,
      "Ġskating": 6028,
      "Ġtypical": 6029,
      "Ġrepres": 6030,
      "Ġstops": 6031,
      "Ġsunset": 6032,
      "Ġcalc": 6033,
      "Ġengland": 6034,
      "Ġsetting": 6035,
      "leased": 6036,
      "Ġemotions": 6037,
      "Ġpaperwork": 6038,
      "load": 6039,
      "Ġdetail": 6040,
      "Ġharm": 6041,
      "Ġgrandpa": 6042,
      "Ġchoir": 6043,
      "Ġadvertise": 6044,
      "Ġpublished": 6045,
      "Ġcrafts": 6046,
      "ropri": 6047,
      "Ġdelay": 6048,
      "Ġmushroom": 6049,
      "ĠPaul": 6050,
      "cil": 6051,
      "iable": 6052,
      "vid": 6053,
      "step": 6054,
      "Ġwise": 6055,
      "Ġdeaf": 6056,
      "Ġbicycle": 6057,
      "Ġpies": 6058,
      "Ġpitch": 6059,
      "itation": 6060,
      "Ġdoors": 6061,
      "Ġinse": 6062,
      "Ġindo": 6063,
      "ribut": 6064,
      "outher": 6065,
      "Ġsore": 6066,
      "ĠThree": 6067,
      "ĠSeptember": 6068,
      "ĠHong": 6069,
      "Ġchop": 6070,
      "ĠAp": 6071,
      "ĠApp": 6072,
      "ĠCor": 6073,
      "Ġhappier": 6074,
      "Ġclaim": 6075,
      "Ġcarr": 6076,
      "soci": 6077,
      "Ġfriendship": 6078,
      "Ġexpenses": 6079,
      "Ġswear": 6080,
      "Ġrecy": 6081,
      "Ġplanes": 6082,
      "Ġcares": 6083,
      "Ġmornings": 6084,
      "Ġpharm": 6085,
      "Ġcookie": 6086,
      "Ġsupper": 6087,
      "Ġleftover": 6088,
      "Ġcrap": 6089,
      "Ġminor": 6090,
      "Ġdraft": 6091,
      "Ġsalon": 6092,
      "Ġbiology": 6093,
      "ĠStreet": 6094,
      "Ġcutting": 6095,
      "Ġconsist": 6096,
      "Ġcreated": 6097,
      "Ġthrowing": 6098,
      "Ġwindows": 6099,
      "Ġbrave": 6100,
      "Ġscheduled": 6101,
      "Ġdamn": 6102,
      "Ġoption": 6103,
      "Ġassume": 6104,
      "Ġproperly": 6105,
      "Ġmotivated": 6106,
      "Ġsearching": 6107,
      "Ġexhausting": 6108,
      "Ġshipment": 6109,
      "Ġmultiple": 6110,
      "ĠGuess": 6111,
      "Ġfestival": 6112,
      "Ġkaty": 6113,
      "aniel": 6114,
      "Ġdespite": 6115,
      "Ġfrequently": 6116,
      "Ġpancakes": 6117,
      "ĠUsually": 6118,
      "ĠRemember": 6119,
      "Ġingredients": 6120,
      "Ġlasagna": 6121,
      "Ġclerk": 6122,
      "Ġbookstore": 6123,
      "aving": 6124,
      "ius": 6125,
      "mers": 6126,
      "oved": 6127,
      "ugust": 6128,
      "ero": 6129,
      "sider": 6130,
      "Ġbri": 6131,
      "Ġbage": 6132,
      "Ġink": 6133,
      "Ġeffic": 6134,
      "amas": 6135,
      "Ġcance": 6136,
      "ĠOH": 6137,
      "Ġnoises": 6138,
      "Ġspoke": 6139,
      "Ġohh": 6140,
      "usement": 6141,
      "Ġapparently": 6142,
      "ĠRec": 6143,
      "Ġunderst": 6144,
      "Ġhighest": 6145,
      "Ġperry": 6146,
      "Ġ45": 6147,
      "Ġdecl": 6148,
      "Ġcommitted": 6149,
      "Ġinvent": 6150,
      "Ġgymn": 6151,
      "Ġindivid": 6152,
      "Ġmatters": 6153,
      "Ġprize": 6154,
      "Ġcreating": 6155,
      "388": 6156,
      "Ġqualified": 6157,
      "Ġoccup": 6158,
      "Ġchilly": 6159,
      "Ġspeeding": 6160,
      "Ġcameras": 6161,
      "Ġjourney": 6162,
      "Ġmaterials": 6163,
      "Ġroutine": 6164,
      "ĠBlack": 6165,
      "Ġgummy": 6166,
      "Ġtornado": 6167,
      "Ġcivil": 6168,
      "Ġtransportation": 6169,
      "Ġdedic": 6170,
      "Ġgraphic": 6171,
      "ographer": 6172,
      "just": 6173,
      "lines": 6174,
      "Ġthursday": 6175,
      "Ġhubby": 6176,
      "ata": 6177,
      "Ġgut": 6178,
      "aries": 6179,
      "Ġamusement": 6180,
      "unities": 6181,
      "ĠSw": 6182,
      "Ġshake": 6183,
      "ĠYear": 6184,
      "Ġrage": 6185,
      "ĠHoney": 6186,
      "ĠWhile": 6187,
      "Ġalarm": 6188,
      "inder": 6189,
      "Ġshep": 6190,
      "ooked": 6191,
      "igr": 6192,
      "Ġtrump": 6193,
      "Ġarms": 6194,
      "Ġparticip": 6195,
      "Ġdrug": 6196,
      "happy": 6197,
      "Ġ32": 6198,
      "Ġmonthly": 6199,
      "Ġfreel": 6200,
      "Ġhaircut": 6201,
      "ĠKore": 6202,
      "Ġpresents": 6203,
      "Ġtournam": 6204,
      "Ġposted": 6205,
      "Ġopportunities": 6206,
      "Ġpolitical": 6207,
      "going": 6208,
      "Ġsandwiches": 6209,
      "Ġcrashed": 6210,
      "Ġversion": 6211,
      "Ġghosts": 6212,
      "Ġteenager": 6213,
      "Ġjeans": 6214,
      "Ġregister": 6215,
      "Ġchallenging": 6216,
      "ĠJapanese": 6217,
      "Ġsettled": 6218,
      "Ġnachos": 6219,
      "ĠWednesday": 6220,
      "Are": 6221,
      "aoke": 6222,
      "bits": 6223,
      "five": 6224,
      "ring": 6225,
      "ermin": 6226,
      "Ġhes": 6227,
      "Ġmental": 6228,
      "rel": 6229,
      "inger": 6230,
      "Ġtoast": 6231,
      "Ġcapt": 6232,
      "isle": 6233,
      "ĠWish": 6234,
      "Ġstub": 6235,
      "Ġchase": 6236,
      "Ġallergy": 6237,
      "Ġanyways": 6238,
      "Ġanytime": 6239,
      "Ġvote": 6240,
      "Ġhappiness": 6241,
      "icked": 6242,
      "ĠEl": 6243,
      "Ġkevin": 6244,
      "Ġmeetings": 6245,
      "Ġhusky": 6246,
      "Ġthoughtful": 6247,
      "apped": 6248,
      "Ġattic": 6249,
      "gged": 6250,
      "ibly": 6251,
      "Ġinfo": 6252,
      "Ġworrying": 6253,
      "Ġfiles": 6254,
      "Ġmaintain": 6255,
      "381": 6256,
      "ificant": 6257,
      "ĠBye": 6258,
      "Ġcoasters": 6259,
      "Ġdevelopment": 6260,
      "Ġsquare": 6261,
      "Ġmixed": 6262,
      "Ġkaraoke": 6263,
      "Ġpicnic": 6264,
      "ttes": 6265,
      "Ġdescribe": 6266,
      "Ġbruno": 6267,
      "Ġgentle": 6268,
      "Ġcuisine": 6269,
      "500": 6270,
      "787": 6271,
      "Yesterday": 6272,
      "bing": 6273,
      "fically": 6274,
      "ns": 6275,
      "Ġaust": 6276,
      "Ġwore": 6277,
      "ases": 6278,
      "Ġhyp": 6279,
      "Ġhole": 6280,
      "Ġmmm": 6281,
      "Ġpant": 6282,
      "Ġpill": 6283,
      "Ġoven": 6284,
      "ooh": 6285,
      "keep": 6286,
      "Ġlion": 6287,
      "Ġhectic": 6288,
      "Ġwester": 6289,
      "ĠHur": 6290,
      "Ġchina": 6291,
      "Ġchasing": 6292,
      "ĠMmm": 6293,
      "Ġprote": 6294,
      "Ġcoinc": 6295,
      "Ġfax": 6296,
      "Ġfever": 6297,
      "Ġsevere": 6298,
      "Ġdise": 6299,
      "Ġflip": 6300,
      "ĠRob": 6301,
      "Ġowners": 6302,
      "ĠThankfully": 6303,
      "Ġcraving": 6304,
      "159": 6305,
      "Ġgirlfriends": 6306,
      "Ġsalt": 6307,
      "Ġmothers": 6308,
      "Ġclosest": 6309,
      "268": 6310,
      "Ġpurs": 6311,
      "Ġbringing": 6312,
      "Ġproduce": 6313,
      "Ġlarger": 6314,
      "Ġweddings": 6315,
      "Ġmidnight": 6316,
      "Ġrefused": 6317,
      "Ġproduction": 6318,
      "Ġranch": 6319,
      "301": 6320,
      "ginia": 6321,
      "Ġallows": 6322,
      "Ġyelled": 6323,
      "Ġdamaged": 6324,
      "Ġinvestment": 6325,
      "Ġknitting": 6326,
      "ĠCalifornia": 6327,
      "Ġmartial": 6328,
      "Ġchristian": 6329,
      "Ġthrift": 6330,
      "Ġcupcakes": 6331,
      "ollywood": 6332,
      "Can": 6333,
      "fy": 6334,
      "lin": 6335,
      "oked": 6336,
      "tles": 6337,
      "wan": 6338,
      "Ġtire": 6339,
      "Ġwaking": 6340,
      "Ġwives": 6341,
      "Ġhid": 6342,
      "Ġdairy": 6343,
      "Ġfare": 6344,
      "order": 6345,
      "Ġdozen": 6346,
      "Ġinit": 6347,
      "icans": 6348,
      "Ġeager": 6349,
      "least": 6350,
      "Ġstew": 6351,
      "Ġshining": 6352,
      "Ġrail": 6353,
      "eaks": 6354,
      "ĠHu": 6355,
      "Ġchances": 6356,
      "ĠOctober": 6357,
      "Ġdonuts": 6358,
      "Ġcoaster": 6359,
      "ĠCon": 6360,
      "ĠBrit": 6361,
      "Ġunited": 6362,
      "ometimes": 6363,
      "Ġcompared": 6364,
      "ags": 6365,
      "Ġroast": 6366,
      "Ġenjoyable": 6367,
      "ective": 6368,
      "ĠPoor": 6369,
      "Ġappear": 6370,
      "Ġwaiter": 6371,
      "Ġowns": 6372,
      "Ġpaycheck": 6373,
      "Ġcounts": 6374,
      "Ġclassm": 6375,
      "anced": 6376,
      "Ġ400": 6377,
      "Ġhandy": 6378,
      "Ġhung": 6379,
      "Ġupsetting": 6380,
      "Ġprofit": 6381,
      "workers": 6382,
      "Ġpuzz": 6383,
      "Ġpuppies": 6384,
      "Ġenvy": 6385,
      "Ġsmelled": 6386,
      "Ġruin": 6387,
      "Ġripped": 6388,
      "Ġclimate": 6389,
      "Ġcases": 6390,
      "Ġparticularly": 6391,
      "Ġmagazines": 6392,
      "Ġlocked": 6393,
      "Ġunemployment": 6394,
      "Ġspelling": 6395,
      "Ġinjured": 6396,
      "Ġdarn": 6397,
      "Ġstrawberries": 6398,
      "Ġgreetings": 6399,
      "Ġwhiskey": 6400,
      "Ġsuperhero": 6401,
      "ancisco": 6402,
      "ĠHawaii": 6403,
      "ĠTaiwan": 6404,
      "Ġrepresent": 6405,
      "outhern": 6406,
      "ĠApril": 6407,
      "548": 6408,
      "Me": 6409,
      "Ġtou": 6410,
      "Ġwarr": 6411,
      "Ġhiring": 6412,
      "Ġsink": 6413,
      "Ġbang": 6414,
      "Ġfake": 6415,
      "Ġfulf": 6416,
      "Ġcure": 6417,
      "Ġlou": 6418,
      "Ġlect": 6419,
      "Ġlying": 6420,
      "oting": 6421,
      "Ġbeg": 6422,
      "Ġforty": 6423,
      "Ġweigh": 6424,
      "Ġstaring": 6425,
      "Ġstairs": 6426,
      "Ġkil": 6427,
      "Ġhipp": 6428,
      "Ġprison": 6429,
      "Ġwouldnt": 6430,
      "Ġdeer": 6431,
      "ĠBoth": 6432,
      "Ġunl": 6433,
      "Ġfees": 6434,
      "agle": 6435,
      "agers": 6436,
      "oster": 6437,
      "ĠRich": 6438,
      "1039": 6439,
      "Ġdining": 6440,
      "This": 6441,
      "Ġspecifically": 6442,
      "Ġslight": 6443,
      "Ġfixing": 6444,
      "Ġsmells": 6445,
      "Ġstarving": 6446,
      "Ġstephen": 6447,
      "Ġpropos": 6448,
      "Ġfeeding": 6449,
      "Ġbulldog": 6450,
      "Ġincredibly": 6451,
      "Ġkicked": 6452,
      "Ġpierc": 6453,
      "Ġspoken": 6454,
      "Ġdeserves": 6455,
      "Ġcandid": 6456,
      "Ġtitle": 6457,
      "ĠEnjoy": 6458,
      "Ġferrari": 6459,
      "ĠMadam": 6460,
      "Ġporch": 6461,
      "Ġcompleted": 6462,
      "Ġcinema": 6463,
      "ropriate": 6464,
      "155": 6465,
      "748": 6466,
      "And": 6467,
      "ray": 6468,
      "Ġwit": 6469,
      "Ġcast": 6470,
      "Ġlend": 6471,
      "ette": 6472,
      "icorn": 6473,
      "Ġreact": 6474,
      "algia": 6475,
      "ĠSay": 6476,
      "Ġhikes": 6477,
      "ĠMac": 6478,
      "Ġups": 6479,
      "Ġven": 6480,
      "Ġvamp": 6481,
      "Ġvisa": 6482,
      "olina": 6483,
      "Ġcomplex": 6484,
      "Ġeats": 6485,
      "ĠLos": 6486,
      "Ġscoot": 6487,
      "Ġqueen": 6488,
      "Ġexpert": 6489,
      "eresting": 6490,
      "balls": 6491,
      "Ġsurprising": 6492,
      "Ġpoison": 6493,
      "Ġears": 6494,
      "Ġacade": 6495,
      "Ġhealthier": 6496,
      "Ġinstall": 6497,
      "Ġcommute": 6498,
      "181": 6499,
      "Ġaddition": 6500,
      "Ġpoints": 6501,
      "Ġahh": 6502,
      "Ġfights": 6503,
      "Ġwalls": 6504,
      "Ġdirectly": 6505,
      "Ġelectronic": 6506,
      "Ġaccomplished": 6507,
      "Ġreached": 6508,
      "Ġcoupons": 6509,
      "Ġtoyota": 6510,
      "Ġslept": 6511,
      "Ġstyles": 6512,
      "Ġlifting": 6513,
      "Ġhamburger": 6514,
      "Ġencourage": 6515,
      "Ġkitty": 6516,
      "known": 6517,
      "Ġhawaii": 6518,
      "524": 6519,
      "67": 6520,
      "fu": 6521,
      "gal": 6522,
      "ially": 6523,
      "overy": 6524,
      "pe": 6525,
      "Ġtires": 6526,
      "Ġaisle": 6527,
      "Ġyuck": 6528,
      "Ġbond": 6529,
      "Ġbomb": 6530,
      "Ġgall": 6531,
      "Ġpud": 6532,
      "Ġbee": 6533,
      "isc": 6534,
      "Ġjumping": 6535,
      "Ġstret": 6536,
      "oodle": 6537,
      "ĠSuch": 6538,
      "Ġshell": 6539,
      "Ġaband": 6540,
      "eable": 6541,
      "ĠHold": 6542,
      "ĠOff": 6543,
      "Ġdeb": 6544,
      "ĠCol": 6545,
      "ĠNO": 6546,
      "Ġmum": 6547,
      "Ġtricks": 6548,
      "Ġguarant": 6549,
      "ĠLove": 6550,
      "ĠLebr": 6551,
      "Ġbubble": 6552,
      "Ġdisab": 6553,
      "Ġsurround": 6554,
      "ĠJenny": 6555,
      "1045": 6556,
      "Ġannual": 6557,
      "Ġpainter": 6558,
      "ords": 6559,
      "Ġmadonna": 6560,
      "Ġvacations": 6561,
      "Ġslave": 6562,
      "Ġpickles": 6563,
      "Ġsubs": 6564,
      "Ġevil": 6565,
      "ĠFrance": 6566,
      "Ġsignificant": 6567,
      "Ġbaggage": 6568,
      "Ġpaintings": 6569,
      "Ġrequired": 6570,
      "weet": 6571,
      "Ġlabor": 6572,
      "Ġclearly": 6573,
      "Ġsolve": 6574,
      "Ġwasted": 6575,
      "Ġrobot": 6576,
      "Ġpurchased": 6577,
      "Ġregistered": 6578,
      "Ġnegot": 6579,
      "Ġwheelch": 6580,
      "Ġchallenge": 6581,
      "ĠBetter": 6582,
      "Ġrenew": 6583,
      "Ġtyping": 6584,
      "Ġcherish": 6585,
      "Ġgossi": 6586,
      "Ġreunion": 6587,
      "Ġargument": 6588,
      "Ġprotein": 6589,
      "Ġabandon": 6590,
      "ĠLebron": 6591,
      "549": 6592,
      "IG": 6593,
      "cra": 6594,
      "form": 6595,
      "now": 6596,
      "rom": 6597,
      "ris": 6598,
      "vable": 6599,
      "Ġahahah": 6600,
      "Ġthunder": 6601,
      "Ġyikes": 6602,
      "Ġdumped": 6603,
      "Ġolymp": 6604,
      "oms": 6605,
      "omer": 6606,
      "Ġhavent": 6607,
      "Ġrely": 6608,
      "Ġstoked": 6609,
      "Ġsharing": 6610,
      "Ġrat": 6611,
      "ulting": 6612,
      "ĠBig": 6613,
      "ĠBest": 6614,
      "Ġund": 6615,
      "Ġunhe": 6616,
      "Ġunhappy": 6617,
      "Ġmang": 6618,
      "apes": 6619,
      "Ġbuses": 6620,
      "ressing": 6621,
      "Ġunderw": 6622,
      "cials": 6623,
      "Ġmini": 6624,
      "Ġstrangers": 6625,
      "Ġdefense": 6626,
      "Ġpicky": 6627,
      "Ġinspect": 6628,
      "Ġcommit": 6629,
      "Ġwinters": 6630,
      "Ġcows": 6631,
      "Ġstatement": 6632,
      "Ġdegrees": 6633,
      "Ġauto": 6634,
      "ĠHaven": 6635,
      "Ġsending": 6636,
      "Ġcausing": 6637,
      "Ġtopic": 6638,
      "Ġtreatment": 6639,
      "Ġcops": 6640,
      "Ġfellow": 6641,
      "Ġartistic": 6642,
      "Ġfreshman": 6643,
      "Ġcheesebur": 6644,
      "Ġjoining": 6645,
      "Ġgamer": 6646,
      "Ġbench": 6647,
      "Ġobject": 6648,
      "Ġapproach": 6649,
      "Ġrecords": 6650,
      "Ġscares": 6651,
      "Ġblessing": 6652,
      "Ġbarbec": 6653,
      "Ġintroduced": 6654,
      "Ġwashington": 6655,
      "Ġroute": 6656,
      "Ġeconom": 6657,
      "Ġsplit": 6658,
      "Ġfortunate": 6659,
      "Ġoutfit": 6660,
      "Ġdiagn": 6661,
      "Ġexplore": 6662,
      "Ġepisode": 6663,
      "Ġcanceled": 6664,
      "Ġgymnast": 6665,
      "Ġwestern": 6666,
      "Ġwarrant": 6667,
      "580": 6668,
      "98": 6669,
      "ii": 6670,
      "lif": 6671,
      "Ġess": 6672,
      "Ġouch": 6673,
      "Ġaqu": 6674,
      "Ġdun": 6675,
      "Ġbree": 6676,
      "Ġfian": 6677,
      "Ġrub": 6678,
      "Ġchi": 6679,
      "Ġanybody": 6680,
      "ĠColl": 6681,
      "ĠNintendo": 6682,
      "Ġintell": 6683,
      "olic": 6684,
      "Ġoffers": 6685,
      "Ġoverweight": 6686,
      "izes": 6687,
      "ĠFall": 6688,
      "roke": 6689,
      "Ġboats": 6690,
      "Ġdaddy": 6691,
      "Ġstray": 6692,
      "Ġantique": 6693,
      "Ġpassen": 6694,
      "ahu": 6695,
      "ĠEngland": 6696,
      "ĠAlthough": 6697,
      "Ġcovers": 6698,
      "Ġfailing": 6699,
      "Ġpatience": 6700,
      "Ġconsult": 6701,
      "Ġmodels": 6702,
      "Ġvalu": 6703,
      "Ġsalads": 6704,
      "mony": 6705,
      "Ġurgent": 6706,
      "ĠAwww": 6707,
      "Ġwashed": 6708,
      "Ġoccasionally": 6709,
      "Ġrussian": 6710,
      "aska": 6711,
      "Ġneckl": 6712,
      "Ġchemistry": 6713,
      "Ġpossibly": 6714,
      "Ġreceptionist": 6715,
      "consin": 6716,
      "Ġcarrots": 6717,
      "139": 6718,
      "323": 6719,
      "61": 6720,
      "BC": 6721,
      "Every": 6722,
      "bles": 6723,
      "Ġult": 6724,
      "Ġtan": 6725,
      "Ġsides": 6726,
      "Ġyup": 6727,
      "Ġbf": 6728,
      "Ġbach": 6729,
      "Ġfits": 6730,
      "Ġpitt": 6731,
      "Ġnation": 6732,
      "Ġinsist": 6733,
      "ĠThink": 6734,
      "ĠSec": 6735,
      "ĠSpr": 6736,
      "ĠHigh": 6737,
      "ĠMor": 6738,
      "ĠAustralia": 6739,
      "indy": 6740,
      "consider": 6741,
      "ctor": 6742,
      "Ġunicorn": 6743,
      "ĠLu": 6744,
      "Ġ250": 6745,
      "ĠParis": 6746,
      "Ġimpossible": 6747,
      "ĠJames": 6748,
      "Ġadminist": 6749,
      "ĠAnn": 6750,
      "Ġwishing": 6751,
      "ĠRed": 6752,
      "ĠRes": 6753,
      "alsa": 6754,
      "119": 6755,
      "standing": 6756,
      "Ġpod": 6757,
      "Ġpocket": 6758,
      "elve": 6759,
      "Ġamazon": 6760,
      "1570": 6761,
      "Ġtypically": 6762,
      "227": 6763,
      "ĠKing": 6764,
      "ĠWashing": 6765,
      "Ġfarmers": 6766,
      "Ġregard": 6767,
      "Ġbanker": 6768,
      "Ġtaller": 6769,
      "Ġgrossed": 6770,
      "ĠAlways": 6771,
      "Ġstorms": 6772,
      "Ġcentury": 6773,
      "Ġnetwork": 6774,
      "Ġturtles": 6775,
      "Ġillness": 6776,
      "Ġtomato": 6777,
      "Ġdeveloped": 6778,
      "Ġadmire": 6779,
      "Ġchecks": 6780,
      "Ġcarrying": 6781,
      "Ġnerd": 6782,
      "Ġreligion": 6783,
      "Ġmortified": 6784,
      "Ġtunes": 6785,
      "Ġbartender": 6786,
      "Ġdisease": 6787,
      "Ġtourist": 6788,
      "Ġnegoti": 6789,
      "Ġunhealthy": 6790,
      "96": 6791,
      "LL": 6792,
      "fect": 6793,
      "year": 6794,
      "Ġ0": 6795,
      "Ġsouthern": 6796,
      "Ġmow": 6797,
      "real": 6798,
      "atures": 6799,
      "Ġdu": 6800,
      "Ġflex": 6801,
      "Ġlane": 6802,
      "Ġgf": 6803,
      "ena": 6804,
      "Ġdom": 6805,
      "Ġbegan": 6806,
      "Ġbeats": 6807,
      "Ġforms": 6808,
      "riger": 6809,
      "Ġworms": 6810,
      "opard": 6811,
      "Ġatleast": 6812,
      "acob": 6813,
      "ends": 6814,
      "Ġrise": 6815,
      "illing": 6816,
      "Ġsuc": 6817,
      "ĠHonest": 6818,
      "Ġtools": 6819,
      "Ġnoisy": 6820,
      "Ġhits": 6821,
      "Ġpreach": 6822,
      "Ġprecious": 6823,
      "ĠCur": 6824,
      "Ġunp": 6825,
      "Ġunable": 6826,
      "Ġunsure": 6827,
      "Ġpep": 6828,
      "ressive": 6829,
      "Ġargue": 6830,
      "lph": 6831,
      "Ġcompl": 6832,
      "Ġ199": 6833,
      "Ġseed": 6834,
      "belie": 6835,
      "Ġdisp": 6836,
      "Ġswell": 6837,
      "Ġplanet": 6838,
      "Ġcareless": 6839,
      "ĠChicago": 6840,
      "207": 6841,
      "Ġsnugg": 6842,
      "Ġmaine": 6843,
      "ĠStud": 6844,
      "188": 6845,
      "Ġadded": 6846,
      "Ġelev": 6847,
      "Ġedge": 6848,
      "Ġindia": 6849,
      "Ġpainted": 6850,
      "Ġrefriger": 6851,
      "Ġhumor": 6852,
      "plant": 6853,
      "place": 6854,
      "Ġlanded": 6855,
      "Ġstorage": 6856,
      "Ġtechnician": 6857,
      "Ġgamble": 6858,
      "Ġbothers": 6859,
      "Ġkeyboard": 6860,
      "Ġdecisions": 6861,
      "kyo": 6862,
      "Ġconnection": 6863,
      "Ġmechan": 6864,
      "Ġjacket": 6865,
      "Ġfreaked": 6866,
      "Ġrelatives": 6867,
      "Ġsurvived": 6868,
      "Ġprinter": 6869,
      "Ġphysics": 6870,
      "Ġarrested": 6871,
      "Ġstreets": 6872,
      "Ġdisabled": 6873,
      "ĠWashington": 6874,
      ".\"": 6875,
      "525": 6876,
      "XX": 6877,
      "ba": 6878,
      "lanta": 6879,
      "pac": 6880,
      "uing": 6881,
      "worth": 6882,
      "yd": 6883,
      "zer": 6884,
      "Ġtiring": 6885,
      "anas": 6886,
      "Ġwa": 6887,
      "Ġware": 6888,
      "Ġsession": 6889,
      "Ġmap": 6890,
      "Ġdough": 6891,
      "Ġdata": 6892,
      "Ġble": 6893,
      "Ġbald": 6894,
      "Ġlame": 6895,
      "Ġgang": 6896,
      "Ġnor": 6897,
      "Ġanaly": 6898,
      "edictorian": 6899,
      "Ġitem": 6900,
      "Ġisnt": 6901,
      "Ġbears": 6902,
      "Ġwhom": 6903,
      "Ġlies": 6904,
      "Ġforce": 6905,
      "ider": 6906,
      "allica": 6907,
      "Ġsteel": 6908,
      "Ġworn": 6909,
      "ĠSam": 6910,
      "pple": 6911,
      "Ġchest": 6912,
      "ĠMa": 6913,
      "ĠAugust": 6914,
      "Ġprinc": 6915,
      "inda": 6916,
      "ffe": 6917,
      "Ġunus": 6918,
      "ĠDoctor": 6919,
      "Ġdisappoint": 6920,
      "Ġlease": 6921,
      "ĠJoe": 6922,
      "ĠRus": 6923,
      "Ġletters": 6924,
      "Ġremain": 6925,
      "ashville": 6926,
      "Ġbreast": 6927,
      "1099": 6928,
      "232": 6929,
      "Ġthroughout": 6930,
      "Ġretiring": 6931,
      "Ġattorn": 6932,
      "Ġmines": 6933,
      "Ġhandling": 6934,
      "phones": 6935,
      "ĠKong": 6936,
      "277": 6937,
      "Ġmessy": 6938,
      "Ġvegetable": 6939,
      "Ġzebr": 6940,
      "Ġindian": 6941,
      "Ġforgotten": 6942,
      "shine": 6943,
      "shirt": 6944,
      "loaf": 6945,
      "Ġyelling": 6946,
      "ĠMonica": 6947,
      "Ġresponse": 6948,
      "Ġcounse": 6949,
      "Ġjoking": 6950,
      "Ġvaledictorian": 6951,
      "Ġcomedian": 6952,
      "Ġregularly": 6953,
      "Ġlaying": 6954,
      "Ġdesigning": 6955,
      "Ġbenefit": 6956,
      "Ġalcoholic": 6957,
      "Ġcommercials": 6958,
      "Ġsharp": 6959,
      "Ġjimmy": 6960,
      "ermany": 6961,
      "ĠInteresting": 6962,
      "Ġjunior": 6963,
      "Ġbagels": 6964,
      "Ġcoincidence": 6965,
      "Ġnecklace": 6966,
      "Ġpepsi": 6967,
      "Ġzebras": 6968,
      "Good": 6969,
      "Maybe": 6970,
      "One": 6971,
      "ias": 6972,
      "isi": 6973,
      "lers": 6974,
      "ok": 6975,
      "vania": 6976,
      "Ġive": 6977,
      "anny": 6978,
      "Ġhiding": 6979,
      "inct": 6980,
      "inos": 6981,
      "Ġboun": 6982,
      "Ġcared": 6983,
      "Ġcooks": 6984,
      "Ġlack": 6985,
      "oring": 6986,
      "Ġocd": 6987,
      "arily": 6988,
      "Ġreleased": 6989,
      "ching": 6990,
      "Ġjail": 6991,
      "ala": 6992,
      "ĠTH": 6993,
      "oodles": 6994,
      "ĠSix": 6995,
      "Ġatm": 6996,
      "ending": 6997,
      "Ġray": 6998,
      "Ġram": 6999,
      "Ġrum": 7000,
      "Ġrapp": 7001,
      "ĠHad": 7002,
      "urbs": 7003,
      "Ġplastic": 7004,
      "ĠAg": 7005,
      "Ġknife": 7006,
      "ĠOver": 7007,
      "rav": 7008,
      "Ġexten": 7009,
      "conn": 7010,
      "iles": 7011,
      "Ġorg": 7012,
      "ĠCent": 7013,
      "Ġgranted": 7014,
      "ablish": 7015,
      "Ġtrou": 7016,
      "quit": 7017,
      "Ġovernight": 7018,
      "Ġtwelve": 7019,
      "ĠFl": 7020,
      "Ġexplo": 7021,
      "Ġfinances": 7022,
      "Ġproced": 7023,
      "Ġreliable": 7024,
      "azing": 7025,
      "Ġskitt": 7026,
      "2087": 7027,
      "Ġcountryside": 7028,
      "Ġsleepy": 7029,
      "ĠThanksgiving": 7030,
      "Ġagreement": 7031,
      "Ġslip": 7032,
      "Ġmeatballs": 7033,
      "Ġmeatloaf": 7034,
      "Ġsuburbs": 7035,
      "Ġmessages": 7036,
      "Ġpug": 7037,
      "Ġgifted": 7038,
      "Ġautograph": 7039,
      "Ġdetermin": 7040,
      "Ġsuggestion": 7041,
      "Ġsnowboard": 7042,
      "Ġcounting": 7043,
      "Ġmachines": 7044,
      "Ġeth": 7045,
      "Ġtradition": 7046,
      "Ġrandomly": 7047,
      "Ġlimited": 7048,
      "Ġfortune": 7049,
      "Ġreviews": 7050,
      "Ġsilver": 7051,
      "Ġpsychology": 7052,
      "Ġrussia": 7053,
      "Ġentertainment": 7054,
      "Ġcritic": 7055,
      "Ġhamburgers": 7056,
      "Ġcommercial": 7057,
      "Ġscreaming": 7058,
      "Ġinspiration": 7059,
      "Ġindividual": 7060,
      "Ġfianc": 7061,
      "Ġvaluable": 7062,
      "478": 7063,
      "54": 7064,
      "949": 7065,
      "If": 7066,
      "aire": 7067,
      "bul": 7068,
      "iant": 7069,
      "rate": 7070,
      "Ġthroat": 7071,
      "usive": 7072,
      "Ġhollywood": 7073,
      "Ġmashed": 7074,
      "Ġdive": 7075,
      "Ġflew": 7076,
      "Ġcope": 7077,
      "Ġcav": 7078,
      "Ġpy": 7079,
      "Ġpear": 7080,
      "Ġhah": 7081,
      "Ġjan": 7082,
      "Ġjames": 7083,
      "adian": 7084,
      "ĠWonder": 7085,
      "Ġstocks": 7086,
      "Ġsteaks": 7087,
      "Ġgoodbye": 7088,
      "eapple": 7089,
      "Ġmos": 7090,
      "urning": 7091,
      "geb": 7092,
      "Ġvill": 7093,
      "ĠBus": 7094,
      "Ġcondo": 7095,
      "Ġune": 7096,
      "umes": 7097,
      "Ġpean": 7098,
      "Ġcarb": 7099,
      "aked": 7100,
      "Ġbacked": 7101,
      "Ġdial": 7102,
      "ĠLin": 7103,
      "ĠLots": 7104,
      "Ġ150": 7105,
      "Ġ1000": 7106,
      "istics": 7107,
      "Ġhardest": 7108,
      "ĠFace": 7109,
      "Ġlifegu": 7110,
      "Ġdisag": 7111,
      "Ġimpact": 7112,
      "448": 7113,
      "1110": 7114,
      "Ġaccent": 7115,
      "cient": 7116,
      "Ġsooner": 7117,
      "Ġsupply": 7118,
      "Ġcurrency": 7119,
      "Thanks": 7120,
      "Ġmeters": 7121,
      "Ġbargain": 7122,
      "Ġpolite": 7123,
      "Ġprescription": 7124,
      "Ġfallon": 7125,
      "Ġaddiction": 7126,
      "Ġexpectations": 7127,
      "ĠFrank": 7128,
      "Ġhumans": 7129,
      "Ġtreating": 7130,
      "Ġprogrammer": 7131,
      "Ġrule": 7132,
      "Ġtexting": 7133,
      "Ġrequires": 7134,
      "Ġcontacts": 7135,
      "Ġlocation": 7136,
      "Ġcomedies": 7137,
      "Ġsucked": 7138,
      "Ġvanilla": 7139,
      "Ġscenery": 7140,
      "Ġcheerle": 7141,
      "Ġadults": 7142,
      "Ġmotivation": 7143,
      "Ġtherapist": 7144,
      "Ġdyed": 7145,
      "ĠDecember": 7146,
      "Ġslee": 7147,
      "Ġcommunication": 7148,
      "Ġunfair": 7149,
      "Ġairplane": 7150,
      "Ġairplanes": 7151,
      "Ġcigarettes": 7152,
      "huahu": 7153,
      "Ġwisconsin": 7154,
      "Ġunderstood": 7155,
      "ĠOffice": 7156,
      "Ġsucceed": 7157,
      "Ġattorney": 7158,
      "375": 7159,
      "FL": 7160,
      "RE": 7161,
      "dom": 7162,
      "rac": 7163,
      "Ġ000": 7164,
      "ashing": 7165,
      "Ġho": 7166,
      "Ġlent": 7167,
      "Ġgreek": 7168,
      "Ġginger": 7169,
      "Ġposs": 7170,
      "itect": 7171,
      "oma": 7172,
      "eto": 7173,
      "Ġreside": 7174,
      "ĠTex": 7175,
      "eek": 7176,
      "Ġrab": 7177,
      "eaking": 7178,
      "Ġchores": 7179,
      "olves": 7180,
      "Ġmanu": 7181,
      "Ġweekly": 7182,
      "Ġtran": 7183,
      "assy": 7184,
      "Ġdiam": 7185,
      "Ġhomemade": 7186,
      "Ġoverall": 7187,
      "irsty": 7188,
      "Ġlean": 7189,
      "Ġdownstairs": 7190,
      "1100": 7191,
      "Ġlistened": 7192,
      "Ġsketch": 7193,
      "ĠChrist": 7194,
      "Ġearned": 7195,
      "Ġelvis": 7196,
      "Ġattached": 7197,
      "Ġbasis": 7198,
      "ivity": 7199,
      "Ġsunshine": 7200,
      "Ġbarking": 7201,
      "Ġconcent": 7202,
      "Ġanticip": 7203,
      "Ġdepression": 7204,
      "Ġphotographer": 7205,
      "Ġballer": 7206,
      "Ġbuildings": 7207,
      "Ġdieting": 7208,
      "Ġpotential": 7209,
      "Ġcaffe": 7210,
      "Ġirma": 7211,
      "Ġboxer": 7212,
      "Ġgeneration": 7213,
      "Ġemployment": 7214,
      "Ġspeaks": 7215,
      "Ġelection": 7216,
      "Ġcelebration": 7217,
      "Ġcelebrated": 7218,
      "Ġsoftball": 7219,
      "Ġmedication": 7220,
      "Ġtaxes": 7221,
      "Ġskinny": 7222,
      "Ġinspired": 7223,
      "ĠGetting": 7224,
      "Ġeffects": 7225,
      "Ġpublishing": 7226,
      "Ġdecorate": 7227,
      "Ġburned": 7228,
      "Ġarchitect": 7229,
      "Ġdigital": 7230,
      "Ġclouds": 7231,
      "Ġvirginia": 7232,
      "ĠMichael": 7233,
      "Ġbattery": 7234,
      "Ġtheatre": 7235,
      "steps": 7236,
      "Ġtournament": 7237,
      "Ġdiagnosed": 7238,
      "Ġmosquit": 7239,
      "ĠTexas": 7240,
      "Donald": 7241,
      "Just": 7242,
      "On": 7243,
      "UN": 7244,
      "Would": 7245,
      "liness": 7246,
      "oices": 7247,
      "rid": 7248,
      "rance": 7249,
      "rict": 7250,
      "walk": 7251,
      "zing": 7252,
      "erved": 7253,
      "Ġsalsa": 7254,
      "Ġfence": 7255,
      "Ġfans": 7256,
      "Ġfisher": 7257,
      "Ġfoster": 7258,
      "Ġgag": 7259,
      "itam": 7260,
      "Ġbeets": 7261,
      "che": 7262,
      "ĠTe": 7263,
      "Ġsticks": 7264,
      "Ġabilities": 7265,
      "ĠYuan": 7266,
      "ional": 7267,
      "Ġplat": 7268,
      "Ġknees": 7269,
      "ateg": 7270,
      "Ġcode": 7271,
      "Ġency": 7272,
      "Ġcarn": 7273,
      "Ġcompare": 7274,
      "estic": 7275,
      "Ġeater": 7276,
      "Ġblond": 7277,
      "Ġmommy": 7278,
      "ĠPut": 7279,
      "ĠPerson": 7280,
      "ccoli": 7281,
      "iously": 7282,
      "Ġcarefully": 7283,
      "Ġglut": 7284,
      "Ġresour": 7285,
      "Ġreserve": 7286,
      "Ġfootsteps": 7287,
      "Ġcourage": 7288,
      "Ġvacu": 7289,
      "Ġdepl": 7290,
      "Ġborder": 7291,
      "Ġseconds": 7292,
      "Ġprior": 7293,
      "Ġpackages": 7294,
      "Ġfreaking": 7295,
      "cloped": 7296,
      "Ġpulling": 7297,
      "Ġtechnical": 7298,
      "Ġcelebrating": 7299,
      "Ġpregnancy": 7300,
      "Ġanswers": 7301,
      "Ġmission": 7302,
      "Ġpenn": 7303,
      "Ġideal": 7304,
      "Ġattacked": 7305,
      "Ġdestroy": 7306,
      "Ġresponsibilities": 7307,
      "ĠPlus": 7308,
      "Ġdarling": 7309,
      "Ġcivic": 7310,
      "Ġstrawberry": 7311,
      "Ġsource": 7312,
      "Ġmirror": 7313,
      "ĠTurns": 7314,
      "ĠGeorge": 7315,
      "Ġcalcul": 7316,
      "Ġbrief": 7317,
      "Ġscooter": 7318,
      "Ġwheelchair": 7319,
      "Ġbarbecue": 7320,
      "ĠHonestly": 7321,
      "Ġencycloped": 7322,
      "58": 7323,
      "Sometimes": 7324,
      "bes": 7325,
      "free": 7326,
      "iers": 7327,
      "lvania": 7328,
      "uly": 7329,
      "Ġtape": 7330,
      "Ġaside": 7331,
      "Ġwire": 7332,
      "Ġthumb": 7333,
      "Ġmia": 7334,
      "Ġmiami": 7335,
      "Ġtofu": 7336,
      "ona": 7337,
      "Ġpony": 7338,
      "Ġpipe": 7339,
      "Ġank": 7340,
      "Ġisol": 7341,
      "Ġbeside": 7342,
      "Ġlip": 7343,
      "Ġreh": 7344,
      "Ġecl": 7345,
      "char": 7346,
      "Ġjugg": 7347,
      "verted": 7348,
      "Ġstir": 7349,
      "entucky": 7350,
      "east": 7351,
      "thats": 7352,
      "term": 7353,
      "ĠAren": 7354,
      "ĠABC": 7355,
      "ĠOut": 7356,
      "ardon": 7357,
      "andy": 7358,
      "Ġdeals": 7359,
      "ĠCall": 7360,
      "Ġshelf": 7361,
      "Ġvint": 7362,
      "Ġsaus": 7363,
      "ĠLee": 7364,
      "ĠList": 7365,
      "ĠLooks": 7366,
      "Ġenjoys": 7367,
      "Ġ2000": 7368,
      "ĠEagles": 7369,
      "Ġexplor": 7370,
      "Ġputs": 7371,
      "Ġdriveway": 7372,
      "Ġconfirm": 7373,
      "150": 7374,
      "uffy": 7375,
      "Ġreput": 7376,
      "Ġneighbour": 7377,
      "ĠExcellent": 7378,
      "Ġanti": 7379,
      "Ġdepressing": 7380,
      "Ġshorts": 7381,
      "Ġparked": 7382,
      "Ġentered": 7383,
      "Ġ800": 7384,
      "Ġaffected": 7385,
      "www": 7386,
      "Ġappreciative": 7387,
      "ĠHaving": 7388,
      "Ġproductive": 7389,
      "Ġlanding": 7390,
      "Ġtours": 7391,
      "ification": 7392,
      "Ġsuitable": 7393,
      "Ġsemi": 7394,
      "Ġcomplaining": 7395,
      "Ġbothering": 7396,
      "Ġclosing": 7397,
      "Ġboarding": 7398,
      "ĠSeems": 7399,
      "Ġhurricanes": 7400,
      "achelor": 7401,
      "Ġpraying": 7402,
      "Ġincludes": 7403,
      "Ġestablish": 7404,
      "Ġjeopard": 7405,
      "Ġalbums": 7406,
      "Ġfifth": 7407,
      "Ġlucy": 7408,
      "Ġsuffer": 7409,
      "Ġweakness": 7410,
      "ĠBarb": 7411,
      "Ġwaves": 7412,
      "Ġassuming": 7413,
      "Ġasth": 7414,
      "Ġmobile": 7415,
      "Ġwitness": 7416,
      "Ġpodcast": 7417,
      "isiana": 7418,
      "Ġmanufact": 7419,
      "Ġvintage": 7420,
      "57": 7421,
      "Have": 7422,
      "ON": 7423,
      "bow": 7424,
      "cies": 7425,
      "case": 7426,
      "ss": 7427,
      "zzy": 7428,
      "Ġsi": 7429,
      "Ġmild": 7430,
      "ators": 7431,
      "Ġblew": 7432,
      "Ġyouth": 7433,
      "Ġtoward": 7434,
      "Ġlone": 7435,
      "Ġlakers": 7436,
      "Ġgest": 7437,
      "Ġpond": 7438,
      "Ġpatter": 7439,
      "Ġpills": 7440,
      "Ġpoodle": 7441,
      "Ġhabits": 7442,
      "Ġinn": 7443,
      "iser": 7444,
      "Ġonions": 7445,
      "outs": 7446,
      "ĠTaylor": 7447,
      "ĠWent": 7448,
      "Ġsoap": 7449,
      "Ġstood": 7450,
      "ĠHard": 7451,
      "ĠWhate": 7452,
      "Ġassure": 7453,
      "Ġprince": 7454,
      "ĠDri": 7455,
      "Ġuses": 7456,
      "ĠBra": 7457,
      "ĠTheir": 7458,
      "Ġunbelie": 7459,
      "igent": 7460,
      "Ġarc": 7461,
      "Ġshoulder": 7462,
      "reece": 7463,
      "ĠGerman": 7464,
      "aped": 7465,
      "ĠFort": 7466,
      "Ġads": 7467,
      "ĠAnother": 7468,
      "Ġterrific": 7469,
      "Ġremote": 7470,
      "Ġtraveler": 7471,
      "1040": 7472,
      "Ġrestroom": 7473,
      "ĠChar": 7474,
      "203": 7475,
      "Ġreturning": 7476,
      "Ġstuffed": 7477,
      "Ġesp": 7478,
      "Ġremembering": 7479,
      "!!!!": 7480,
      "erco": 7481,
      "ĠVegas": 7482,
      "Ġhopes": 7483,
      "Ġgenius": 7484,
      "Ġaccounts": 7485,
      "Ġreflect": 7486,
      "Ġtasted": 7487,
      "Ġbroccoli": 7488,
      "Ġkiller": 7489,
      "Ġdresses": 7490,
      "Ġsecrets": 7491,
      "Ġdetective": 7492,
      "Ġconsum": 7493,
      "Ġille": 7494,
      "Ġcousins": 7495,
      "Ġmentioned": 7496,
      "ascar": 7497,
      "Ġtransferred": 7498,
      "Ġexperiences": 7499,
      "Ġirritating": 7500,
      "Ġpepperoni": 7501,
      "Ġarchery": 7502,
      "Ġcombination": 7503,
      "ĠAccount": 7504,
      "Ġmarkets": 7505,
      "Ġoregon": 7506,
      "Ġhomeschool": 7507,
      "Ġpumpkin": 7508,
      "Ġjogging": 7509,
      "Ġexcite": 7510,
      "Ġcereal": 7511,
      "Ġappetite": 7512,
      "ĠOtherwise": 7513,
      "ĠMcDonald": 7514,
      "Ġgossip": 7515,
      "Ġinspection": 7516,
      "Ġuneasy": 7517,
      "Ġlifeguard": 7518,
      "Ġcaffeine": 7519,
      "ĠWhatever": 7520,
      "217": 7521,
      "955": 7522,
      "MY": 7523,
      "Not": 7524,
      "ban": 7525,
      "down": 7526,
      "ford": 7527,
      "ham": 7528,
      "rad": 7529,
      "Ġumb": 7530,
      "Ġtent": 7531,
      "sters": 7532,
      "inic": 7533,
      "Ġmoped": 7534,
      "sight": 7535,
      "Ġduck": 7536,
      "Ġdirt": 7537,
      "Ġlamp": 7538,
      "Ġpm": 7539,
      "Ġpale": 7540,
      "Ġpanic": 7541,
      "Ġstable": 7542,
      "amm": 7543,
      "Ġrates": 7544,
      "Ġaspect": 7545,
      "Ġplain": 7546,
      "Ġspit": 7547,
      "Ġspaces": 7548,
      "Ġspread": 7549,
      "Ġpred": 7550,
      "Ġgrind": 7551,
      "ĠBen": 7552,
      "ĠBoy": 7553,
      "abor": 7554,
      "Ġunc": 7555,
      "Ġunw": 7556,
      "Ġbrunch": 7557,
      "resp": 7558,
      "quet": 7559,
      "Ġscot": 7560,
      "ĠGen": 7561,
      "ĠPre": 7562,
      "Ġexport": 7563,
      "Ġswift": 7564,
      "Ġadjust": 7565,
      "ĠAnge": 7566,
      "ĠRo": 7567,
      "449": 7568,
      "getic": 7569,
      "Ġvision": 7570,
      "Ġskunk": 7571,
      "Ġboating": 7572,
      "Ġanne": 7573,
      "208": 7574,
      "ionship": 7575,
      "Ġ65": 7576,
      "Ġheads": 7577,
      "ological": 7578,
      "Ġzero": 7579,
      "Ġeditor": 7580,
      "Ġmajoring": 7581,
      "Ġcaf": 7582,
      "uggets": 7583,
      "Ġrolls": 7584,
      "Ġrollerco": 7585,
      "ĠAlmost": 7586,
      "Ġtreated": 7587,
      "Ġcompetitions": 7588,
      "Ġselfish": 7589,
      "Ġbraves": 7590,
      "Ġcolored": 7591,
      "minal": 7592,
      "Ġrip": 7593,
      "Ġdesigned": 7594,
      "Ġleader": 7595,
      "Ġreplaced": 7596,
      "Ġpencil": 7597,
      "Ġborrowed": 7598,
      "Ġenvironmental": 7599,
      "Ġmotorcycles": 7600,
      "Ġrecovering": 7601,
      "Ġdecorating": 7602,
      "Ġcandles": 7603,
      "Ġtoddler": 7604,
      "works": 7605,
      "Ġignore": 7606,
      "Ġprincess": 7607,
      "Ġrelieved": 7608,
      "ĠFinally": 7609,
      "Ġcudd": 7610,
      "Ġtranslator": 7611,
      "Ġtrauma": 7612,
      "ĠProf": 7613,
      "Ġpaddle": 7614,
      "Ġpandas": 7615,
      "ĠRecently": 7616,
      "Ġfreelance": 7617,
      "Ġguarantee": 7618,
      "ĠLucy": 7619,
      "for": 7620,
      "hus": 7621,
      "ka": 7622,
      "nold": 7623,
      "oan": 7624,
      "uition": 7625,
      "Ġtear": 7626,
      "Ġtask": 7627,
      "Ġace": 7628,
      "Ġasia": 7629,
      "ergetic": 7630,
      "Ġhers": 7631,
      "ini": 7632,
      "inis": 7633,
      "Ġdull": 7634,
      "Ġcul": 7635,
      "Ġnashville": 7636,
      "oman": 7637,
      "Ġbeet": 7638,
      "Ġrear": 7639,
      "cher": 7640,
      "Ġweed": 7641,
      "ĠWH": 7642,
      "ĠSan": 7643,
      "Ġshad": 7644,
      "ĠHA": 7645,
      "ĠHonda": 7646,
      "ĠHoly": 7647,
      "Ġassoci": 7648,
      "Ġfrancisco": 7649,
      "geon": 7650,
      "Ġexotic": 7651,
      "Ġspears": 7652,
      "ership": 7653,
      "ĠNorth": 7654,
      "Ġvent": 7655,
      "Ġvoices": 7656,
      "Ġvitam": 7657,
      "Ġenergetic": 7658,
      "ĠBu": 7659,
      "ĠBel": 7660,
      "Ġfunds": 7661,
      "Ġclar": 7662,
      "Ġclinic": 7663,
      "osh": 7664,
      "Ġbrow": 7665,
      "Ġ120": 7666,
      "ĠEr": 7667,
      "ĠEither": 7668,
      "ĠPC": 7669,
      "ĠRose": 7670,
      "Ġdownload": 7671,
      "Ġmoves": 7672,
      "Ġcheet": 7673,
      "Ġidi": 7674,
      "Ġsummers": 7675,
      "Ġmaid": 7676,
      "Ġslack": 7677,
      "onto": 7678,
      "Ġspecialty": 7679,
      "Ġparcel": 7680,
      "Ġinterviewed": 7681,
      "Ġlaws": 7682,
      "Thats": 7683,
      "Ġaccidents": 7684,
      "Ġmessing": 7685,
      "Ġzone": 7686,
      "inton": 7687,
      "Ġroads": 7688,
      "Ġhumili": 7689,
      "Ġconsiderate": 7690,
      "Ġabsolute": 7691,
      "Ġsecretly": 7692,
      "Ġattended": 7693,
      "Ġtechno": 7694,
      "Ġshelters": 7695,
      "Ġcounty": 7696,
      "Ġdesigns": 7697,
      "sylvania": 7698,
      "ĠHahaha": 7699,
      "Ġsolid": 7700,
      "Ġchannels": 7701,
      "ĠZh": 7702,
      "Ġrescued": 7703,
      "Ġbearded": 7704,
      "Ġburrito": 7705,
      "Ġindependent": 7706,
      "Ġperspect": 7707,
      "ouston": 7708,
      "Ġchihuahu": 7709,
      "Ġelevator": 7710,
      "Ġrefrigerator": 7711,
      "Ġunusual": 7712,
      "Ġpearl": 7713,
      "Ġeclip": 7714,
      "Ġasthma": 7715,
      "Ġumbrell": 7716,
      "51": 7717,
      "RAM": 7718,
      "dos": 7719,
      "iat": 7720,
      "life": 7721,
      "sbur": 7722,
      "yy": 7723,
      "Ġara": 7724,
      "state": 7725,
      "Ġwound": 7726,
      "Ġcord": 7727,
      "Ġlink": 7728,
      "Ġgear": 7729,
      "Ġpairs": 7730,
      "Ġnascar": 7731,
      "Ġole": 7732,
      "ita": 7733,
      "Ġliking": 7734,
      "Ġliqu": 7735,
      "Ġease": 7736,
      "leans": 7737,
      "Ġjoint": 7738,
      "amily": 7739,
      "ĠSer": 7740,
      "Ġshared": 7741,
      "Ġmold": 7742,
      "Ġfro": 7743,
      "elle": 7744,
      "Ġproof": 7745,
      "Ġspin": 7746,
      "Ġspec": 7747,
      "ilton": 7748,
      "ĠNet": 7749,
      "ĠBack": 7750,
      "Ġunif": 7751,
      "venue": 7752,
      "Ġfunction": 7753,
      "Ġpeop": 7754,
      "Ġcarolina": 7755,
      "Ġwatches": 7756,
      "ĠLea": 7757,
      "Ġmuscles": 7758,
      "Ġ29": 7759,
      "ĠEach": 7760,
      "Ġbush": 7761,
      "ĠJason": 7762,
      "Ġtone": 7763,
      "Ġtrim": 7764,
      "Ġinterior": 7765,
      "2086": 7766,
      "Ġcruel": 7767,
      "arsh": 7768,
      "Ġgrading": 7769,
      "Ġrepay": 7770,
      "Ġrains": 7771,
      "Ġtoto": 7772,
      "Ġindie": 7773,
      "Ġcauses": 7774,
      "pler": 7775,
      "Ġtreats": 7776,
      "Ġfreed": 7777,
      "Ġcolour": 7778,
      "Ġhistor": 7779,
      "Ġjoe": 7780,
      "together": 7781,
      "Ġradi": 7782,
      "Ġurban": 7783,
      "Ġsquir": 7784,
      "Ġcreed": 7785,
      "Ġcrushed": 7786,
      "Ġinjury": 7787,
      "Ġcycling": 7788,
      "Ġthrilled": 7789,
      "Ġrejected": 7790,
      "Ġdistracted": 7791,
      "seeing": 7792,
      "Ġmerma": 7793,
      "ĠMexican": 7794,
      "ĠMexico": 7795,
      "Ġiguana": 7796,
      "ĠOlympics": 7797,
      "Ġpineapple": 7798,
      "Ġkittens": 7799,
      "Ġbritney": 7800,
      "Ġvampire": 7801,
      "Ġadministration": 7802,
      "Ġwarehouse": 7803,
      "Ġskittles": 7804,
      "Ġballerina": 7805,
      "Ġexcitement": 7806,
      "145": 7807,
      "1200": 7808,
      "iens": 7809,
      "kies": 7810,
      "lets": 7811,
      "rs": 7812,
      "Ġiq": 7813,
      "Ġhint": 7814,
      "Ġsets": 7815,
      "Ġmate": 7816,
      "atory": 7817,
      "atomy": 7818,
      "Ġdies": 7819,
      "Ġditch": 7820,
      "Ġbone": 7821,
      "Ġbound": 7822,
      "Ġbare": 7823,
      "Ġbiz": 7824,
      "Ġcough": 7825,
      "Ġcreek": 7826,
      "Ġgender": 7827,
      "enry": 7828,
      "Ġpatch": 7829,
      "Ġancient": 7830,
      "etime": 7831,
      "oosing": 7832,
      "Ġinconsider": 7833,
      "alach": 7834,
      "allas": 7835,
      "ĠWork": 7836,
      "ĠWester": 7837,
      "Ġko": 7838,
      "ĠSu": 7839,
      "ounter": 7840,
      "Ġaliens": 7841,
      "urt": 7842,
      "elly": 7843,
      "ĠWhats": 7844,
      "ila": 7845,
      "ishing": 7846,
      "ĠCD": 7847,
      "ĠBeen": 7848,
      "Ġunknown": 7849,
      "Ġintention": 7850,
      "Ġsounded": 7851,
      "Ġpeed": 7852,
      "Ġdiv": 7853,
      "Ġdiapers": 7854,
      "Ġawww": 7855,
      "Ġprove": 7856,
      "sities": 7857,
      "iances": 7858,
      "Ġhighway": 7859,
      "Ġresched": 7860,
      "ĠCheck": 7861,
      "222": 7862,
      "Ġdefin": 7863,
      "Ġmetallica": 7864,
      "phere": 7865,
      "Ġug": 7866,
      "Ġ:,": 7867,
      "Ġslice": 7868,
      "Ġ75": 7869,
      "Ġcalories": 7870,
      "Ġsells": 7871,
      "Ġseller": 7872,
      "Ġfalls": 7873,
      "Ġfallen": 7874,
      "Ġpractical": 7875,
      "Ġfourth": 7876,
      "Ġoffering": 7877,
      "335": 7878,
      "ĠEverybody": 7879,
      "Ġfitting": 7880,
      "Ġcreatures": 7881,
      "Ġreturns": 7882,
      "ĠAlice": 7883,
      "ĠAfrica": 7884,
      "ography": 7885,
      "Ġtrek": 7886,
      "Ġfocused": 7887,
      "Ġveggie": 7888,
      "Ġappliances": 7889,
      "Ġinspiring": 7890,
      "Ġthousands": 7891,
      "Ġnaturally": 7892,
      "Ġadventures": 7893,
      "Ġmortgage": 7894,
      "working": 7895,
      "Ġcuz": 7896,
      "Ġfarted": 7897,
      "Ġphysically": 7898,
      "Ġcosmet": 7899,
      "Ġpollution": 7900,
      "Ġsuspense": 7901,
      "Ġcockro": 7902,
      "Ġblanket": 7903,
      "Ġrepeat": 7904,
      "ĠJulia": 7905,
      "Ġcrawling": 7906,
      "IGRAM": 7907,
      "ĠSpring": 7908,
      "Ġdomestic": 7909,
      "ĠFacebook": 7910,
      "Ġtransit": 7911,
      "Ġdiamond": 7912,
      "UNIGRAM": 7913,
      "Ġgesture": 7914,
      "Ġinnoc": 7915,
      "Ġillegal": 7916,
      "Ġpeoples": 7917,
      "Ġinconsiderate": 7918,
      "alachian": 7919,
      "!!,": 7920,
      "725": 7921,
      "nel": 7922,
      "vard": 7923,
      "Ġtas": 7924,
      "Ġtag": 7925,
      "Ġtah": 7926,
      "stick": 7927,
      "Ġhill": 7928,
      "inated": 7929,
      "Ġment": 7930,
      "Ġyay": 7931,
      "Ġdave": 7932,
      "Ġdreamed": 7933,
      "Ġbid": 7934,
      "Ġlun": 7935,
      "Ġlap": 7936,
      "Ġgeez": 7937,
      "Ġpics": 7938,
      "Ġanatomy": 7939,
      "arag": 7940,
      "Ġinconv": 7941,
      "Ġlivid": 7942,
      "Ġeagles": 7943,
      "Ġhesit": 7944,
      "Ġjet": 7945,
      "Ġwears": 7946,
      "ĠWar": 7947,
      "ĠWatch": 7948,
      "Ġsoph": 7949,
      "Ġstroke": 7950,
      "Ġshipping": 7951,
      "they": 7952,
      "Ġalien": 7953,
      "ĠMed": 7954,
      "ells": 7955,
      "ĠDaniel": 7956,
      "Ġspect": 7957,
      "Ġorch": 7958,
      "ĠCindy": 7959,
      "ĠNah": 7960,
      "Ġvase": 7961,
      "Ġuns": 7962,
      "Ġoffices": 7963,
      "Ġscored": 7964,
      "Ġappalachian": 7965,
      "Ġlemon": 7966,
      "Ġhousehold": 7967,
      "Ġremode": 7968,
      "Ġimage": 7969,
      "Ġpizzas": 7970,
      "Ġgraders": 7971,
      "Ġpartying": 7972,
      "Ġreduce": 7973,
      "ĠKe": 7974,
      "Ġmedit": 7975,
      "490": 7976,
      "Ġgrowth": 7977,
      "ĠExp": 7978,
      "ĠStay": 7979,
      "Ġpracticed": 7980,
      "Ġsubm": 7981,
      "Ġaffairs": 7982,
      "Ġsimpler": 7983,
      "Ġpotty": 7984,
      "Ġautumn": 7985,
      "Ġrefuse": 7986,
      "ĠShow": 7987,
      "Ġinformed": 7988,
      "409": 7989,
      "Ġribs": 7990,
      "Ġcentral": 7991,
      "iences": 7992,
      "Ġcasual": 7993,
      "Ġleading": 7994,
      "Ġhandsome": 7995,
      "Ġmillions": 7996,
      "Ġdeveloping": 7997,
      "Ġbreathe": 7998,
      "Ġbarbie": 7999,
      "ĠMario": 8000,
      "Ġclowns": 8001,
      "Ġoreo": 8002,
      "Ġaggrav": 8003,
      "Ġiguanas": 8004,
      "Ġmassage": 8005,
      "Ġdestination": 8006,
      "Ġinfluence": 8007,
      "Ġacadem": 8008,
      "Ġstretch": 8009,
      "Ġabandoned": 8010,
      "Ġpittsbur": 8011,
      "Ġcompliment": 8012,
      "Ġdisagree": 8013,
      "Ġgluten": 8014,
      "Ġvacuum": 8015,
      "Ġunbelievable": 8016,
      "Ġinconven": 8017,
      "223": 8018,
      "685": 8019,
      "727": 8020,
      "Could": 8021,
      "PA": 8022,
      "bid": 8023,
      "bull": 8024,
      "cting": 8025,
      "foot": 8026,
      "gie": 8027,
      "pa": 8028,
      "rack": 8029,
      "ros": 8030,
      "was": 8031,
      "watch": 8032,
      "Ġtack": 8033,
      "Ġtren": 8034,
      "Ġthreat": 8035,
      "Ġhm": 8036,
      "Ġhouston": 8037,
      "Ġsin": 8038,
      "Ġsooo": 8039,
      "Ġcub": 8040,
      "Ġlen": 8041,
      "Ġnuggets": 8042,
      "Ġmyster": 8043,
      "Ġbeast": 8044,
      "Ġjas": 8045,
      "ĠWal": 8046,
      "Ġkicking": 8047,
      "Ġketo": 8048,
      "Ġkentucky": 8049,
      "Ġshes": 8050,
      "Ġshorter": 8051,
      "Ġrack": 8052,
      "ĠHum": 8053,
      "ĠMo": 8054,
      "ĠMus": 8055,
      "Ġplot": 8056,
      "Ġplates": 8057,
      "Ġplumber": 8058,
      "Ġnoon": 8059,
      "geons": 8060,
      "arest": 8061,
      "ourmet": 8062,
      "Ġspain": 8063,
      "Ġtheme": 8064,
      "Ġvoc": 8065,
      "Ġvoted": 8066,
      "ĠBir": 8067,
      "ĠOhh": 8068,
      "osphere": 8069,
      "Ġkiddos": 8070,
      "ĠLinda": 8071,
      "Ġsevent": 8072,
      "Ġscrew": 8073,
      "Ġlasts": 8074,
      "Ġblown": 8075,
      "ĠPoke": 8076,
      "Ġacted": 8077,
      "Ġ36": 8078,
      "Ġwished": 8079,
      "Ġtheirs": 8080,
      "Ġremoved": 8081,
      "103": 8082,
      "tenance": 8083,
      "Ġtries": 8084,
      "1525": 8085,
      "rats": 8086,
      "umba": 8087,
      "Ġcharges": 8088,
      "Ġdealer": 8089,
      "Ġcommission": 8090,
      "435": 8091,
      "Ġinviting": 8092,
      "Ġentrance": 8093,
      "lando": 8094,
      "Ġiceland": 8095,
      "Ġadditional": 8096,
      "Ġstressing": 8097,
      "Ġmidwest": 8098,
      "Ġavid": 8099,
      "408": 8100,
      "Ġgenerous": 8101,
      "284": 8102,
      "Ġoccur": 8103,
      "Ġorganization": 8104,
      "Ġpatients": 8105,
      "Ġdepending": 8106,
      "Ġdiego": 8107,
      "Ġadmir": 8108,
      "Ġoperation": 8109,
      "Ġvera": 8110,
      "Ġeffective": 8111,
      "Ġspoil": 8112,
      "Ġrecovered": 8113,
      "Ġcoupon": 8114,
      "Ġcouples": 8115,
      "Ġcheesy": 8116,
      "Ġwebsites": 8117,
      "Ġlux": 8118,
      "Ġcracked": 8119,
      "Ġsharks": 8120,
      "ĠDepartment": 8121,
      "Ġceremony": 8122,
      "Ġcertificate": 8123,
      "Ġfrightened": 8124,
      "Ġcuddle": 8125,
      "Ġpunish": 8126,
      "Ġgathering": 8127,
      "Ġuniverse": 8128,
      "Ġinsect": 8129,
      "Ġpuzzles": 8130,
      "Ġslightly": 8131,
      "Ġproposal": 8132,
      "Ġgymnastics": 8133,
      "ĠMorning": 8134,
      "Ġfiancee": 8135,
      "Ġconcentrate": 8136,
      "Ġfisherman": 8137,
      "Ġjeopardy": 8138,
      "Ġfreedom": 8139,
      "ĠPokemon": 8140,
      "329": 8141,
      "422": 8142,
      "EA": 8143,
      "OU": 8144,
      "SA": 8145,
      "Yea": 8146,
      "isit": 8147,
      "lisher": 8148,
      "mg": 8149,
      "mes": 8150,
      "ya": 8151,
      "Ġtank": 8152,
      "Ġastr": 8153,
      "Ġhook": 8154,
      "inum": 8155,
      "Ġdj": 8156,
      "Ġdare": 8157,
      "Ġbisc": 8158,
      "Ġgourmet": 8159,
      "Ġpure": 8160,
      "Ġpushing": 8161,
      "Ġnin": 8162,
      "Ġnike": 8163,
      "Ġod": 8164,
      "esh": 8165,
      "ario": 8166,
      "Ġliar": 8167,
      "Ġrecit": 8168,
      "Ġjacob": 8169,
      "ĠThomas": 8170,
      "uns": 8171,
      "Ġnearest": 8172,
      "Ġshave": 8173,
      "acing": 8174,
      "eeze": 8175,
      "Ġsupr": 8176,
      "Ġalaska": 8177,
      "ĠMum": 8178,
      "Ġoutgoing": 8179,
      "Ġoutstanding": 8180,
      "Ġupd": 8181,
      "ands": 8182,
      "ilight": 8183,
      "ksh": 8184,
      "Ġprevent": 8185,
      "Ġdebit": 8186,
      "ĠNational": 8187,
      "ĠNFL": 8188,
      "Ġplayoff": 8189,
      "Ġhappily": 8190,
      "Ġafrica": 8191,
      "Ġaged": 8192,
      "Ġrod": 8193,
      "Ġque": 8194,
      "Ġquant": 8195,
      "bean": 8196,
      "beat": 8197,
      "Ġblamed": 8198,
      "Ġteller": 8199,
      "ĠFood": 8200,
      "ĠFord": 8201,
      "Ġdrake": 8202,
      "Ġfinds": 8203,
      "Ġ34": 8204,
      "Ġadam": 8205,
      "Ġtongue": 8206,
      "Ġplanner": 8207,
      "aughter": 8208,
      "Ġfarms": 8209,
      "Ġclassroom": 8210,
      "apping": 8211,
      "athy": 8212,
      "Ġcris": 8213,
      "228": 8214,
      "Ġ600": 8215,
      "Ġtesting": 8216,
      "Ġslam": 8217,
      "Ġrained": 8218,
      "attered": 8219,
      "Ġapartments": 8220,
      "Ġgenres": 8221,
      "Ġevidence": 8222,
      "Ġlargest": 8223,
      "Ġfilming": 8224,
      "ĠDoesn": 8225,
      "Ġfreck": 8226,
      "Ġstarved": 8227,
      "Ġeggplant": 8228,
      "rilliant": 8229,
      "Ġproposed": 8230,
      "ĠTrust": 8231,
      "Ġsolution": 8232,
      "Ġreservations": 8233,
      "Ġcontinues": 8234,
      "ĠPerfect": 8235,
      "lights": 8236,
      "Ġgoalie": 8237,
      "Ġcultures": 8238,
      "Ġregistration": 8239,
      "Ġachievement": 8240,
      "Ġdesserts": 8241,
      "Ġsmoothly": 8242,
      "Ġelectricity": 8243,
      "Ġpushed": 8244,
      "nesota": 8245,
      "ĠAmazing": 8246,
      "Ġasparag": 8247,
      "Ġordinary": 8248,
      "Ġrequirements": 8249,
      "ĠDeposit": 8250,
      "Ġimmigr": 8251,
      "Ġinches": 8252,
      "Ġwrestling": 8253,
      "Ġnicer": 8254,
      "Ġbroadway": 8255,
      "Ġtiger": 8256,
      "Ġexhibition": 8257,
      "Ġmurder": 8258,
      "ĠQuite": 8259,
      "essica": 8260,
      "Ġindoors": 8261,
      "Ġleftovers": 8262,
      "Ġthunderst": 8263,
      "Ġbreeze": 8264,
      "Ġpreacher": 8265,
      "worthy": 8266,
      "Ġatmosphere": 8267,
      "Ġprocedure": 8268,
      "ĠListen": 8269,
      "Ġeclipse": 8270,
      "Ġumbrella": 8271,
      "Ġasparagus": 8272,
      "2116": 8273,
      "350": 8274,
      "IT": 8275,
      "OO": 8276,
      "School": 8277,
      "aign": 8278,
      "cking": 8279,
      "fall": 8280,
      "long": 8281,
      "pot": 8282,
      "rings": 8283,
      "smo": 8284,
      "tit": 8285,
      "yan": 8286,
      "Ġvers": 8287,
      "Ġtap": 8288,
      "Ġari": 8289,
      "stones": 8290,
      "Ġwif": 8291,
      "Ġharsh": 8292,
      "Ġmates": 8293,
      "Ġmerc": 8294,
      "Ġbm": 8295,
      "Ġcass": 8296,
      "Ġlin": 8297,
      "Ġger": 8298,
      "vember": 8299,
      "Ġpam": 8300,
      "Ġpour": 8301,
      "Ġpace": 8302,
      "Ġnancy": 8303,
      "esus": 8304,
      "omes": 8305,
      "Ġreaction": 8306,
      "Ġarent": 8307,
      "lest": 8308,
      "utter": 8309,
      "Ġmeasure": 8310,
      "ĠWest": 8311,
      "ĠSally": 8312,
      "Ġshots": 8313,
      "acle": 8314,
      "Ġabused": 8315,
      "Ġcanadian": 8316,
      "ĠMont": 8317,
      "Ġplaced": 8318,
      "Ġgotcha": 8319,
      "Ġspecially": 8320,
      "ĠNob": 8321,
      "Ġconvert": 8322,
      "Ġhappend": 8323,
      "Ġclicked": 8324,
      "Ġarnold": 8325,
      "Ġsaves": 8326,
      "ĠLaw": 8327,
      "agne": 8328,
      "ĠHelen": 8329,
      "Ġwhoa": 8330,
      "ĠFair": 8331,
      "Ġmario": 8332,
      "Ġdisplay": 8333,
      "Ġexpired": 8334,
      "Ġexpression": 8335,
      "Ġswam": 8336,
      "Ġfinals": 8337,
      "Ġappropriate": 8338,
      "Ġsurvey": 8339,
      "Ġdriven": 8340,
      "ĠJones": 8341,
      "Ġrecall": 8342,
      "Ġglob": 8343,
      "Ġhuskies": 8344,
      "1048": 8345,
      "Ġclever": 8346,
      "Ġsites": 8347,
      "ĠChat": 8348,
      "Ġearrings": 8349,
      "2085": 8350,
      "2095": 8351,
      "Ġidol": 8352,
      "ancing": 8353,
      "Ġattach": 8354,
      "Ġhanded": 8355,
      "Ġhandic": 8356,
      "while": 8357,
      "ĠInst": 8358,
      "Ġordering": 8359,
      "Ġmeth": 8360,
      "199": 8361,
      "Ġslim": 8362,
      "Ġmilksh": 8363,
      "Ġparlor": 8364,
      "Ġparamed": 8365,
      "Ġsuburb": 8366,
      "Ġwarming": 8367,
      "Ġcostume": 8368,
      "Ġdifficulties": 8369,
      "Ġpublisher": 8370,
      "Ġsixth": 8371,
      "Ġforgetting": 8372,
      "Ġartists": 8373,
      "Ġtouring": 8374,
      "ifications": 8375,
      "Ġperformed": 8376,
      "Ġcentre": 8377,
      "Ġcampaign": 8378,
      "Ġlocally": 8379,
      "Ġsubjects": 8380,
      "Ġhundreds": 8381,
      "Ġerr": 8382,
      "Ġrobots": 8383,
      "Ġkarma": 8384,
      "ĠLucky": 8385,
      "Ġnoble": 8386,
      "Ġspoiled": 8387,
      "Ġbabysitting": 8388,
      "Ġtrailer": 8389,
      "Ġmulti": 8390,
      "Ġchampagne": 8391,
      "Ġloads": 8392,
      "Ġkayak": 8393,
      "Ġcommunicate": 8394,
      "Ġbanking": 8395,
      "Ġnutr": 8396,
      "Ġencoura": 8397,
      "Ġdemanding": 8398,
      "Ġcertification": 8399,
      "Ġangeles": 8400,
      "Ġnightmares": 8401,
      "ĠOlympic": 8402,
      "Ġlandscapes": 8403,
      "Ġdiabet": 8404,
      "Ġparticipate": 8405,
      "ĠKorean": 8406,
      "ĠRichard": 8407,
      "Ġpudding": 8408,
      "Ġcheeseburgers": 8409,
      "Ġwarranty": 8410,
      "lifting": 8411,
      "Ġvillage": 8412,
      "Ġresources": 8413,
      "Ġankle": 8414,
      "Ġreputation": 8415,
      "ĠZhang": 8416,
      "Ġchihuahua": 8417,
      "Ġugly": 8418,
      "Ġinnocent": 8419,
      "216": 8420,
      "680": 8421,
      "In": 8422,
      "Let": 8423,
      "OW": 8424,
      "gar": 8425,
      "name": 8426,
      "ruit": 8427,
      "sp": 8428,
      "uate": 8429,
      "ucc": 8430,
      "wo": 8431,
      "Ġward": 8432,
      "Ġdan": 8433,
      "Ġdated": 8434,
      "Ġdub": 8435,
      "Ġbachelor": 8436,
      "Ġpra": 8437,
      "edes": 8438,
      "ott": 8439,
      "Ġrev": 8440,
      "Ġrelease": 8441,
      "Ġforced": 8442,
      "Ġjello": 8443,
      "verse": 8444,
      "ĠWin": 8445,
      "Ġsole": 8446,
      "Ġstan": 8447,
      "Ġstere": 8448,
      "aming": 8449,
      "ĠServ": 8450,
      "ĠSarah": 8451,
      "ĠSummer": 8452,
      "Ġshout": 8453,
      "Ġatlanta": 8454,
      "Ġabuse": 8455,
      "Ġrome": 8456,
      "Ġraces": 8457,
      "ĠHR": 8458,
      "Ġchubby": 8459,
      "ĠMaster": 8460,
      "ulate": 8461,
      "Ġupstairs": 8462,
      "Ġprem": 8463,
      "Ġorph": 8464,
      "ĠCle": 8465,
      "ĠCra": 8466,
      "ĠBell": 8467,
      "Ġunits": 8468,
      "Ġintend": 8469,
      "olar": 8470,
      "Ġbride": 8471,
      "Ġcarbs": 8472,
      "Ġbackp": 8473,
      "Ġfeatures": 8474,
      "ĠLong": 8475,
      "ĠLily": 8476,
      "ĠLittle": 8477,
      "Ġtwilight": 8478,
      "ĠPr": 8479,
      "ĠPart": 8480,
      "ĠFour": 8481,
      "ĠFore": 8482,
      "Ġsurgeon": 8483,
      "ĠJuly": 8484,
      "Ġfluffy": 8485,
      "Ġhousework": 8486,
      "Ġmonitor": 8487,
      "erto": 8488,
      "Ġfarming": 8489,
      "Ġreminis": 8490,
      "2336": 8491,
      "Ġcleans": 8492,
      "201": 8493,
      "2080": 8494,
      "1710": 8495,
      "ublic": 8496,
      "Ġcraf": 8497,
      "ealand": 8498,
      "1526": 8499,
      "Ġarticles": 8500,
      "Ġdifferently": 8501,
      "Ġstruct": 8502,
      "ĠUK": 8503,
      "Ġsecure": 8504,
      "Ġtrustworthy": 8505,
      "Ġdescription": 8506,
      "Ġsickness": 8507,
      "Ġgrows": 8508,
      "Ġ77": 8509,
      "Ġinterviewer": 8510,
      "Ġhoped": 8511,
      "Ġenthus": 8512,
      "332": 8513,
      "Ġsidewalk": 8514,
      "Ġdiscip": 8515,
      "Ġsibling": 8516,
      "Ġpottery": 8517,
      "Ġcopies": 8518,
      "ĠAmericans": 8519,
      "Ġpropose": 8520,
      "Ġreports": 8521,
      "Ġlitter": 8522,
      "565": 8523,
      "Ġinvolves": 8524,
      "Ġofficial": 8525,
      "Ġjamming": 8526,
      "Ġequal": 8527,
      "employed": 8528,
      "Ġimprovement": 8529,
      "Ġlizards": 8530,
      "Ġpsychologist": 8531,
      "Ġrugby": 8532,
      "Ġcycle": 8533,
      "Ġpitbull": 8534,
      "Ġflavors": 8535,
      "Ġhealing": 8536,
      "Ġpossibility": 8537,
      "Ġgained": 8538,
      "Ġbuffet": 8539,
      "Ġcockt": 8540,
      "Ġboost": 8541,
      "Ġvomit": 8542,
      "Ġcigarette": 8543,
      "Ġidentical": 8544,
      "Ġembarassing": 8545,
      "Ġtigers": 8546,
      "ING": 8547,
      "Ġoccupation": 8548,
      "ĠRobert": 8549,
      "ĠCollege": 8550,
      "Ġflexible": 8551,
      "Ġextension": 8552,
      "Ġpyram": 8553,
      "Ġlipstick": 8554,
      "ĠProfessor": 8555,
      "Ġreschedule": 8556,
      "Ġpittsburgh": 8557,
      "End": 8558,
      "Here": 8559,
      "VE": 8560,
      "coin": 8561,
      "elt": 8562,
      "mith": 8563,
      "mill": 8564,
      "oking": 8565,
      "ux": 8566,
      "zil": 8567,
      "eres": 8568,
      "Ġthirsty": 8569,
      "Ġhass": 8570,
      "Ġhence": 8571,
      "sign": 8572,
      "Ġbrilliant": 8573,
      "ingle": 8574,
      "ĠIS": 8575,
      "encies": 8576,
      "Ġanger": 8577,
      "Ġoy": 8578,
      "arks": 8579,
      "Ġinqu": 8580,
      "Ġwhos": 8581,
      "Ġliber": 8582,
      "icals": 8583,
      "utch": 8584,
      "rib": 8585,
      "alog": 8586,
      "Ġweap": 8587,
      "amn": 8588,
      "Ġshaking": 8589,
      "Ġchain": 8590,
      "ĠOmg": 8591,
      "amel": 8592,
      "aint": 8593,
      "Ġgrace": 8594,
      "Ġherbs": 8595,
      "umst": 8596,
      "ĠLooking": 8597,
      "Ġscold": 8598,
      "ĠGold": 8599,
      "ists": 8600,
      "Ġours": 8601,
      "ĠEm": 8602,
      "ĠFun": 8603,
      "aiting": 8604,
      "Ġactors": 8605,
      "veland": 8606,
      "Ġrecreat": 8607,
      "ĠRome": 8608,
      "ĠRock": 8609,
      "Ġmonkey": 8610,
      "orsche": 8611,
      "Ġphob": 8612,
      "Ġcontribut": 8613,
      "Ġperks": 8614,
      "Ġperman": 8615,
      "Ġbelow": 8616,
      "Ġpoke": 8617,
      "Ġbitcoin": 8618,
      "Ġreserved": 8619,
      "ĠGoodbye": 8620,
      "Ġtrial": 8621,
      "Ġcrappy": 8622,
      "Ġprepar": 8623,
      "Ġminnesota": 8624,
      "Ġhunter": 8625,
      "Ġupper": 8626,
      "Ġinvitation": 8627,
      "Ġ--": 8628,
      "Ġadvise": 8629,
      "1816": 8630,
      "Ġproduc": 8631,
      "Ġballs": 8632,
      "Ġzomb": 8633,
      "Ġsigns": 8634,
      "Ġautism": 8635,
      "Ġsocialize": 8636,
      "Ġprim": 8637,
      "Ġdropping": 8638,
      "Ġfairy": 8639,
      "Ġdeadline": 8640,
      "Ġsmoked": 8641,
      "Ġsafely": 8642,
      "Ġthrown": 8643,
      "Ġqualify": 8644,
      "Ġrapids": 8645,
      "Ġanswering": 8646,
      "Ġconsulting": 8647,
      "oops": 8648,
      "Ġinvested": 8649,
      "ĠSpeaking": 8650,
      "Ġfires": 8651,
      "ĠMostly": 8652,
      "ophies": 8653,
      "Ġbreathing": 8654,
      "Ġcompanion": 8655,
      "hhh": 8656,
      "Ġnewspapers": 8657,
      "Ġjeff": 8658,
      "Ġgolfing": 8659,
      "ĠZina": 8660,
      "Ġconcern": 8661,
      "Ġchampionship": 8662,
      "ĠInternational": 8663,
      "Ġbottles": 8664,
      "Ġcosplay": 8665,
      "Ġchewing": 8666,
      "Ġangel": 8667,
      "Ġtablet": 8668,
      "Ġrecognize": 8669,
      "Ġdelayed": 8670,
      "Ġrecycle": 8671,
      "Ġclassmates": 8672,
      "Ġunderwear": 8673,
      "ĠBusiness": 8674,
      "respon": 8675,
      "ĠRoad": 8676,
      "ĠBelieve": 8677,
      "Ġarab": 8678,
      "Ġfreckles": 8679,
      "Ġbmw": 8680,
      "Ġdiabetes": 8681,
      "Re": 8682,
      "aired": 8683,
      "bl": 8684,
      "cs": 8685,
      "col": 8686,
      "faction": 8687,
      "hou": 8688,
      "ji": 8689,
      "nies": 8690,
      "ox": 8691,
      "vrol": 8692,
      "vana": 8693,
      "zed": 8694,
      "Ġought": 8695,
      "Ġtale": 8696,
      "stock": 8697,
      "street": 8698,
      "Ġwra": 8699,
      "Ġwiz": 8700,
      "Ġhills": 8701,
      "Ġses": 8702,
      "Ġsac": 8703,
      "Ġsears": 8704,
      "Ġmc": 8705,
      "Ġmat": 8706,
      "Ġmount": 8707,
      "reaking": 8708,
      "Ġyall": 8709,
      "Ġdavid": 8710,
      "ĠImp": 8711,
      "Ġcit": 8712,
      "Ġcateg": 8713,
      "Ġled": 8714,
      "Ġgila": 8715,
      "lly": 8716,
      "Ġpup": 8717,
      "Ġpist": 8718,
      "Ġpile": 8719,
      "Ġpens": 8720,
      "Ġpages": 8721,
      "Ġbean": 8722,
      "Ġbeating": 8723,
      "Ġbeagle": 8724,
      "icies": 8725,
      "rier": 8726,
      "Ġjason": 8727,
      "adill": 8728,
      "ados": 8729,
      "Ġstare": 8730,
      "Ġrh": 8731,
      "Ġrash": 8732,
      "Ġsuite": 8733,
      "Ġchased": 8734,
      "ĠItaly": 8735,
      "ula": 8736,
      "Ġfrag": 8737,
      "ĠOld": 8738,
      "Ġupgr": 8739,
      "oyal": 8740,
      "Ġdevast": 8741,
      "Ġenroll": 8742,
      "osen": 8743,
      "Ġbrace": 8744,
      "Ġneedles": 8745,
      "Ġcarl": 8746,
      "Ġfeature": 8747,
      "estival": 8748,
      "Ġquake": 8749,
      "Ġ27": 8750,
      "Ġ28": 8751,
      "anged": 8752,
      "ĠPM": 8753,
      "ĠFestival": 8754,
      "Ġdiss": 8755,
      "Ġactions": 8756,
      "Ġleis": 8757,
      "Ġwracking": 8758,
      "1059": 8759,
      "Ġhusbands": 8760,
      "Ġwondered": 8761,
      "235": 8762,
      "Ġwinner": 8763,
      "158": 8764,
      "Ġattemp": 8765,
      "Ġsnap": 8766,
      "Ġswimmer": 8767,
      "Ġmeds": 8768,
      "Ġperfume": 8769,
      "Ġpolicies": 8770,
      "Ġpasses": 8771,
      "Ġpreschool": 8772,
      "Ġextended": 8773,
      "Ġbosses": 8774,
      "Ġblackjack": 8775,
      "Ġseasons": 8776,
      "Ġdiscovery": 8777,
      "Ġwarmer": 8778,
      "Ġlightning": 8779,
      "Ġburning": 8780,
      "Ġirrespon": 8781,
      "Ġsixty": 8782,
      "Ġbuddies": 8783,
      "Ġtennes": 8784,
      "flies": 8785,
      "Ġfields": 8786,
      "Ġconscious": 8787,
      "Ġgarlic": 8788,
      "Ġcrossing": 8789,
      "Ġdeeply": 8790,
      "Ġlawyers": 8791,
      "Ġshifts": 8792,
      "Ġviolinist": 8793,
      "Ġsightseeing": 8794,
      "Ġalbert": 8795,
      "ĠLiu": 8796,
      "Ġcoolest": 8797,
      "Ġaspiring": 8798,
      "Ġcapital": 8799,
      "Ġfestiv": 8800,
      "Ġskateboarding": 8801,
      "Ġskydive": 8802,
      "Ġdocumentary": 8803,
      "Ġvomited": 8804,
      "Ġselected": 8805,
      "iki": 8806,
      "Ġpediat": 8807,
      "Ġseparate": 8808,
      "Ġcorporation": 8809,
      "Ġoverwhelming": 8810,
      "Ġoverwhelmed": 8811,
      "Ġmushrooms": 8812,
      "keeper": 8813,
      "Ġpiercings": 8814,
      "ĠSecond": 8815,
      "ĠCurrent": 8816,
      "Ġwaist": 8817,
      "Ġsteelers": 8818,
      "Ġdetermined": 8819,
      "Ġethnic": 8820,
      "Ġpennsylvania": 8821,
      "ĠAngeles": 8822,
      "Ġperspective": 8823,
      "Ġuniform": 8824,
      "Ġmentally": 8825,
      "Ġrecital": 8826,
      "Ġcrisp": 8827,
      "Ġorphan": 8828,
      "Ġhassle": 8829,
      "527": 8830,
      "FC": 8831,
      "MG": 8832,
      "May": 8833,
      "To": 8834,
      "Was": 8835,
      "not": 8836,
      "sed": 8837,
      "sung": 8838,
      "vant": 8839,
      "word": 8840,
      "Ġtang": 8841,
      "err": 8842,
      "Ġip": 8843,
      "star": 8844,
      "stone": 8845,
      "Ġwid": 8846,
      "Ġwand": 8847,
      "usion": 8848,
      "Ġhood": 8849,
      "Ġsoooo": 8850,
      "sick": 8851,
      "assion": 8852,
      "Ġbust": 8853,
      "Ġfuel": 8854,
      "Ġlat": 8855,
      "Ġlenses": 8856,
      "Ġlumber": 8857,
      "Ġpec": 8858,
      "Ġpeach": 8859,
      "Ġnoodles": 8860,
      "arre": 8861,
      "Ġinher": 8862,
      "Ġwhil": 8863,
      "Ġonion": 8864,
      "aded": 8865,
      "ĠTot": 8866,
      "ĠWood": 8867,
      "ĠWind": 8868,
      "ĠWalk": 8869,
      "Ġstain": 8870,
      "Ġstations": 8871,
      "Ġstream": 8872,
      "Ġstove": 8873,
      "ĠThough": 8874,
      "Ġkale": 8875,
      "Ġnest": 8876,
      "Ġshark": 8877,
      "Ġshred": 8878,
      "Ġshades": 8879,
      "Ġworkplace": 8880,
      "ulty": 8881,
      "ĠDick": 8882,
      "Ġdepart": 8883,
      "Ġsheet": 8884,
      "Ġvict": 8885,
      "ĠBas": 8886,
      "Ġnewborn": 8887,
      "Ġunion": 8888,
      "Ġbrat": 8889,
      "Ġbecomes": 8890,
      "ĠLou": 8891,
      "ĠWeb": 8892,
      "Ġseash": 8893,
      "Ġevenings": 8894,
      "ĠEd": 8895,
      "Ġblah": 8896,
      "izer": 8897,
      "Ġcattle": 8898,
      "Ġcatalog": 8899,
      "ĠFive": 8900,
      "ĠFoot": 8901,
      "ĠFamily": 8902,
      "ĠJune": 8903,
      "Ġglo": 8904,
      "Ġthru": 8905,
      "appucc": 8906,
      "Ġthanksgiving": 8907,
      "2317": 8908,
      "Ġbelieved": 8909,
      "1755": 8910,
      "ĠVal": 8911,
      "Ġstrate": 8912,
      "Ġrelaxation": 8913,
      "Ġredo": 8914,
      "Ġmeter": 8915,
      "Ġclosely": 8916,
      "Ġconcl": 8917,
      "Ġincomp": 8918,
      "Ġgardens": 8919,
      "Ġnostalgia": 8920,
      "ĠStop": 8921,
      "ĠStep": 8922,
      "Ġpractically": 8923,
      "Ġdrawings": 8924,
      "Ġstandards": 8925,
      "Ġdances": 8926,
      "Ġlarp": 8927,
      "Ġediting": 8928,
      "Ġ911": 8929,
      "Ġmaintenance": 8930,
      "Ġfairs": 8931,
      "Ġboxers": 8932,
      "282": 8933,
      "289": 8934,
      "Ġtechnically": 8935,
      "Ġeducational": 8936,
      "iency": 8937,
      "Ġcasinos": 8938,
      "Ġleads": 8939,
      "Ġtempor": 8940,
      "Ġinvolve": 8941,
      "Ġapprove": 8942,
      "ĠUSA": 8943,
      "ophone": 8944,
      "Ġtoronto": 8945,
      "Ġhousing": 8946,
      "Ġchallenges": 8947,
      "Ġdemoc": 8948,
      "eteria": 8949,
      "Ġbutterflies": 8950,
      "ungee": 8951,
      "ĠPlay": 8952,
      "Ġinstructions": 8953,
      "Ġsweaters": 8954,
      "Ġtailg": 8955,
      "Ġpalm": 8956,
      "Ġsymph": 8957,
      "Ġpermit": 8958,
      "Ġkitties": 8959,
      "Ġadvertisement": 8960,
      "ĠCorpor": 8961,
      "Ġhidden": 8962,
      "Ġlouisiana": 8963,
      "Ġhippie": 8964,
      "ĠColor": 8965,
      "Ġmangoes": 8966,
      "Ġanalyst": 8967,
      "Ġrapper": 8968,
      "ĠWonderful": 8969,
      "Ġpeanuts": 8970,
      "Ġdeployed": 8971,
      "Ġsausage": 8972,
      "Ġloneliness": 8973,
      "ĠFortun": 8974,
      "Ġcafeteria": 8975,
      "ĠSeriously": 8976,
      "ĠBirth": 8977,
      "vrolet": 8978,
      "Ġpediatric": 8979,
      "..,": 8980,
      "218": 8981,
      "Ha": 8982,
      "St": 8983,
      "bec": 8984,
      "fight": 8985,
      "gum": 8986,
      "mus": 8987,
      "mont": 8988,
      "mission": 8989,
      "nn": 8990,
      "pes": 8991,
      "rated": 8992,
      "rical": 8993,
      "Ġtaylor": 8994,
      "ste": 8995,
      "anke": 8996,
      "Ġwolves": 8997,
      "Ġmower": 8998,
      "Ġmatt": 8999,
      "ingers": 9000,
      "onies": 9001,
      "Ġcage": 9002,
      "Ġlakes": 9003,
      "orke": 9004,
      "aroni": 9005,
      "Ġont": 9006,
      "Ġheav": 9007,
      "alf": 9008,
      "Ġwelf": 9009,
      "ĠTed": 9010,
      "Ġsofa": 9011,
      "iments": 9012,
      "Ġkj": 9013,
      "unting": 9014,
      "ĠSit": 9015,
      "ĠSqu": 9016,
      "ĠSue": 9017,
      "Ġsho": 9018,
      "Ġshocking": 9019,
      "acious": 9020,
      "irvana": 9021,
      "Ġrating": 9022,
      "eared": 9023,
      "Ġaltogether": 9024,
      "Ġmod": 9025,
      "ĠMade": 9026,
      "Ġspeck": 9027,
      "Ġcoord": 9028,
      "Ġprec": 9029,
      "acked": 9030,
      "Ġdelight": 9031,
      "ĠBea": 9032,
      "ĠBoston": 9033,
      "Ġnewly": 9034,
      "Ġnewest": 9035,
      ".....": 9036,
      "Ġmanners": 9037,
      "Ġcaramel": 9038,
      "Ġargu": 9039,
      "agram": 9040,
      "Ġpretz": 9041,
      "Ġmusicians": 9042,
      "ĠHelp": 9043,
      "ĠDogs": 9044,
      "Ġblocks": 9045,
      "ĠPan": 9046,
      "ĠFriend": 9047,
      "ĠFred": 9048,
      "Ġdrummer": 9049,
      "Ġflav": 9050,
      "Ġflint": 9051,
      "Ġrecruit": 9052,
      "roit": 9053,
      "Ġsings": 9054,
      "iao": 9055,
      "Ġsupporting": 9056,
      "ĠChen": 9057,
      "1575": 9058,
      "Ġsleeps": 9059,
      "uries": 9060,
      "1900": 9061,
      "Ġheadaches": 9062,
      "Ġuk": 9063,
      "Ġincident": 9064,
      "Ġcalming": 9065,
      "Ġairline": 9066,
      "Ġevac": 9067,
      "463": 9068,
      "Ġeleven": 9069,
      "Ġbankrupt": 9070,
      "Ġwindy": 9071,
      "Ġhumid": 9072,
      "Ġsurface": 9073,
      "Ġdisturb": 9074,
      "Ġcoverage": 9075,
      "ommod": 9076,
      "Ġsuitcase": 9077,
      "Ġgeology": 9078,
      "Ġinvestig": 9079,
      "Ġportra": 9080,
      "Ġsatisfaction": 9081,
      "Ġteenagers": 9082,
      "Ġaudience": 9083,
      "ĠWorking": 9084,
      "Ġveteran": 9085,
      "Ġsilk": 9086,
      "Ġdenver": 9087,
      "Ġignored": 9088,
      "Ġsuffering": 9089,
      "Ġtowel": 9090,
      "Ġsympt": 9091,
      "Ġscarf": 9092,
      "Ġembarassed": 9093,
      "Ġcooperation": 9094,
      "ĠIndian": 9095,
      "Ġcorporate": 9096,
      "ĠApparently": 9097,
      "Ġdeclare": 9098,
      "Ġshepard": 9099,
      "Ġcandidate": 9100,
      "Ġbubblegum": 9101,
      "Ġintelligent": 9102,
      "Ġramen": 9103,
      "Ġautographs": 9104,
      "Ġsnowboarding": 9105,
      "Ġcheerleading": 9106,
      "Ġisolated": 9107,
      "Ġarcade": 9108,
      "Ġscotch": 9109,
      "Ġculinary": 9110,
      "Ġhumiliated": 9111,
      "Ġmysteries": 9112,
      "Ġjasper": 9113,
      "Ġquantity": 9114,
      "ĠNobody": 9115,
      "Ġparamedic": 9116,
      "Ġpokemon": 9117,
      "Ġpreparation": 9118,
      "Ġtennessee": 9119,
      "ĠColorado": 9120,
      "ĠBirthday": 9121,
      "Ġwelfare": 9122,
      "Don": 9123,
[...]
